<unk>	0
<s>	0
</s>	0
<pad>	0
<bos>	0
<eos>	0
▁d	-0
▁e	-1
▁l	-2
▁a	-3
▁s	-4
▁de	-5
▁c	-6
os	-7
er	-8
▁p	-9
en	-10
on	-11
an	-12
ar	-13
ue	-14
as	-15
es	-16
▁m	-17
do	-18
ab	-19
que	-20
▁y	-21
▁la	-22
ci	-23
re	-24
or	-25
▁h	-26
▁que	-27
▁t	-28
▁en	-29
un	-30
in	-31
▁el	-32
ía	-33
▁con	-34
▁n	-35
ent	-36
ad	-37
al	-38
st	-39
▁v	-40
▁se	-41
▁su	-42
▁un	-43
ra	-44
om	-45
▁al	-46
ri	-47
▁los	-48
aba	-49
▁—	-50
▁o	-51
ro	-52
▁f	-53
to	-54
am	-55
▁no	-56
le	-57
▁es	-58
ado	-59
▁b	-60
ón	-61
ti	-62
▁di	-63
ch	-64
ol	-65
te	-66
id	-67
▁g	-68
▁re	-69
ier	-70
lo	-71
▁hab	-72
qu	-73
ente	-74
▁lo	-75
▁com	-76
ir	-77
▁por	-78
▁E	-79
▁in	-80
▁las	-81
▁pr	-82
▁del	-83
ie	-84
▁par	-85
▁P	-86
de	-87
..	-88
ta	-89
▁r	-90
mp	-91
▁est	-92
la	-93
jo	-94
▁A	-95
▁cu	-96
is	-97
il	-98
▁des	-99
▁to	-100
ero	-101
ando	-102
▁le	-103
di	-104
ada	-105
▁N	-106
▁una	-107
ces	-108
cu	-109
▁ha	-110
gu	-111
ás	-112
us	-113
ien	-114
ran	-115
pe	-116
▁S	-117
ción	-118
tr	-119
at	-120
▁qu	-121
mi	-122
se	-123
mo	-124
▁si	-125
go	-126
▁M	-127
▁D	-128
ían	-129
▁sus	-130
▁mu	-131
▁L	-132
cia	-133
vi	-134
aban	-135
dos	-136
bre	-137
res	-138
▁para	-139
▁ex	-140
▁ac	-141
▁había	-142
▁i	-143
ín	-144
ez	-145
▁sin	-146
...	-147
ce	-148
▁más	-149
era	-150
co	-151
li	-152
ca	-153
▁como	-154
tu	-155
▁me	-156
ento	-157
da	-158
án	-159
▁é	-160
ia	-161
▁B	-162
tes	-163
▁El	-164
dad	-165
amente	-166
▁per	-167
▁j	-168
tó	-169
ierre	-170
gun	-171
▁pre	-172
▁an	-173
▁Pierre	-174
tar	-175
cipe	-176
▁pro	-177
▁prín	-178
▁príncipe	-179
vo	-180
cía	-181
▁dijo	-182
ante	-183
▁so	-184
ma	-185
▁po	-186
▁ent	-187
ist	-188
▁An	-189
ens	-190
ones	-191
▁él	-192
po	-193
ido	-194
uer	-195
▁man	-196
quel	-197
▁mis	-198
ras	-199
tro	-200
fi	-201
▁¿	-202
ter	-203
és	-204
ió	-205
los	-206
▁pero	-207
ov	-208
▁sal	-209
▁todo	-210
ida	-211
▁era	-212
▁aquel	-213
me	-214
par	-215
▁ca	-216
▁pas	-217
cho	-218
▁cam	-219
io	-220
▁R	-221
cer	-222
ur	-223
idad	-224
dr	-225
▁lle	-226
ha	-227
én	-228
▁cas	-229
▁res	-230
tra	-231
iemp	-232
▁tan	-233
▁sol	-234
▁cab	-235
pa	-236
▁mir	-237
▁C	-238
▁as	-239
▁hom	-240
na	-241
▁T	-242
ora	-243
ver	-244
▁ser	-245
ib	-246
per	-247
▁¡	-248
ust	-249
uest	-250
jos	-251
asha	-252
▁ver	-253
▁—¡	-254
ados	-255
tos	-256
▁car	-257
▁vo	-258
▁son	-259
▁sent	-260
atasha	-261
▁ni	-262
▁ve	-263
▁ab	-264
um	-265
▁prin	-266
▁pe	-267
▁ten	-268
▁Natasha	-269
mos	-270
▁Y	-271
dré	-272
▁vol	-273
lar	-274
der	-275
▁sobre	-276
pu	-277
za	-278
▁André	-279
▁“	-280
▁pare	-281
▁La	-282
sa	-283
▁comp	-284
con	-285
den	-286
it	-287
ís	-288
día	-289
▁K	-290
aron	-291
▁estaba	-292
▁fran	-293
ten	-294
▁cuando	-295
▁hi	-296
mente	-297
▁te	-298
▁pregun	-299
ión	-300
▁—¿	-301
▁ya	-302
ún	-303
ólo	-304
ren	-305
las	-306
ru	-307
▁En	-308
cesa	-309
▁Andréi	-310
▁todos	-311
miento	-312
ciones	-313
arse	-314
ios	-315
je	-316
tov	-317
▁qué	-318
▁pue	-319
ul	-320
aría	-321
▁ma	-322
▁bien	-323
pués	-324
eg	-325
ién	-326
ales	-327
▁mismo	-328
▁ar	-329
el	-330
▁imp	-331
▁cor	-332
▁princesa	-333
▁entre	-334
ostov	-335
▁pri	-336
encia	-337
▁Rostov	-338
▁V	-339
das	-340
ik	-341
cha	-342
des	-343
ut	-344
▁ll	-345
▁pens	-346
osa	-347
▁sab	-348
!—	-349
erc	-350
zo	-351
ría	-352
endo	-353
man	-354
fici	-355
▁or	-356
mb	-357
▁ros	-358
▁deb	-359
▁dis	-360
▁pal	-361
?—	-362
▁lleg	-363
ven	-364
▁mo	-365
les	-366
ér	-367
Qu	-368
dose	-369
hora	-370
▁tra	-371
▁gen	-372
▁deci	-373
▁Pero	-374
▁he	-375
▁ojos	-376
van	-377
▁mi	-378
ño	-379
▁ob	-380
▁ba	-381
taba	-382
ador	-383
tros	-384
▁ella	-385
▁vi	-386
▁tiemp	-387
tas	-388
▁vez	-389
▁hacia	-390
ud	-391
ub	-392
▁exp	-393
ái	-394
oso	-395
ga	-396
entos	-397
iera	-398
adas	-399
▁gener	-400
▁rostro	-401
▁nue	-402
▁ap	-403
▁muy	-404
lan	-405
ba	-406
▁ocu	-407
▁pos	-408
▁conde	-409
▁gri	-410
ara	-411
▁Nik	-412
▁her	-413
▁segu	-414
▁gran	-415
▁Se	-416
▁homb	-417
ed	-418
▁tiempo	-419
▁después	-420
▁has	-421
▁casa	-422
cio	-423
▁acerc	-424
dió	-425
▁dos	-426
▁No	-427
ja	-428
ve	-429
▁nada	-430
ros	-431
▁mar	-432
eza	-433
▁pa	-434
▁prop	-435
▁ofici	-436
No	-437
▁palab	-438
▁rus	-439
▁ahora	-440
▁co	-441
fe	-442
ino	-443
mper	-444
▁sonri	-445
sk	-446
▁cabal	-447
▁ne	-448
▁Al	-449
able	-450
▁dej	-451
▁Mos	-452
▁algo	-453
amb	-454
adre	-455
▁voz	-456
ita	-457
enta	-458
▁fuer	-459
im	-460
Qué	-461
▁compren	-462
ena	-463
▁hombre	-464
▁Nikol	-465
iempre	-466
gar	-467
▁ro	-468
cú	-469
ac	-470
pon	-471
▁am	-472
cito	-473
▁inter	-474
va	-475
▁Nikolái	-476
▁María	-477
▁Moscú	-478
si	-479
ible	-480
and	-481
▁ter	-482
▁ej	-483
▁vie	-484
▁hacer	-485
▁toda	-486
dido	-487
▁otro	-488
▁bat	-489
▁preguntó	-490
ció	-491
gn	-492
ili	-493
unto	-494
▁fue	-495
mas	-496
▁ejér	-497
▁pers	-498
▁pres	-499
▁vida	-500
▁rep	-501
▁general	-502
rib	-503
apo	-504
▁(	-505
cen	-506
▁antes	-507
▁siempre	-508
▁esp	-509
▁cono	-510
▁hombres	-511
che	-512
▁hasta	-513
▁Los	-514
ona	-515
▁decir	-516
cl	-517
▁ese	-518
jer	-519
car	-520
vió	-521
apole	-522
ana	-523
▁señ	-524
▁frances	-525
apoleón	-526
▁ad	-527
▁fe	-528
▁quien	-529
▁aleg	-530
▁prim	-531
vid	-532
onde	-533
▁inf	-534
▁porque	-535
ieron	-536
ería	-537
▁podía	-538
▁día	-539
anto	-540
ándose	-541
▁ejército	-542
▁eso	-543
▁llev	-544
mperador	-545
cor	-546
uel	-547
▁Napoleón	-548
ío	-549
ómo	-550
cos	-551
▁dese	-552
▁du	-553
▁sólo	-554
▁desde	-555
▁está	-556
▁algun	-557
▁je	-558
▁cabeza	-559
▁habían	-560
orm	-561
▁ra	-562
ambién	-563
▁lu	-564
▁ch	-565
migo	-566
▁reg	-567
zó	-568
ski	-569
cido	-570
▁neces	-571
imiento	-572
du	-573
ña	-574
▁esa	-575
▁condes	-576
▁yo	-577
tad	-578
▁Kut	-579
▁mano	-580
▁orden	-581
zov	-582
▁sil	-583
▁sí	-584
úzov	-585
▁Kutúzov	-586
idos	-587
▁franceses	-588
▁cal	-589
laba	-590
▁entr	-591
▁I	-592
cas	-593
dados	-594
no	-595
▁H	-596
▁Pe	-597
tado	-598
iendo	-599
▁condesa	-600
▁palabras	-601
so	-602
▁esper	-603
rado	-604
▁nuevo	-605
onia	-606
▁así	-607
ación	-608
▁qued	-609
min	-610
ori	-611
▁ay	-612
▁tro	-613
▁batal	-614
entes	-615
▁emp	-616
vna	-617
ías	-618
ores	-619
▁otra	-620
▁donde	-621
▁mujer	-622
tir	-623
▁cre	-624
▁pu	-625
enís	-626
▁tenía	-627
▁sigu	-628
▁ir	-629
▁ust	-630
▁Emperador	-631
ños	-632
▁Cu	-633
▁apar	-634
▁aquella	-635
▁U	-636
▁soldados	-637
▁ven	-638
▁cada	-639
más	-640
▁hist	-641
▁pron	-642
”,	-643
▁mon	-644
gr	-645
fer	-646
▁cual	-647
▁mal	-648
▁ri	-649
▁cos	-650
▁cons	-651
▁todas	-652
▁sino	-653
▁esc	-654
▁usted	-655
▁levan	-656
▁llam	-657
▁bu	-658
cias	-659
▁volvió	-660
lti	-661
vía	-662
▁ellos	-663
cil	-664
tió	-665
ario	-666
ort	-667
eros	-668
▁oficial	-669
▁Des	-670
jov	-671
rig	-672
antes	-673
cían	-674
▁col	-675
ano	-676
▁uno	-677
▁parecía	-678
rante	-679
▁padre	-680
▁ú	-681
pas	-682
enísov	-683
▁Sonia	-684
▁expres	-685
▁ce	-686
▁decía	-687
▁vist	-688
cib	-689
▁cer	-690
▁medi	-691
▁Bor	-692
▁hay	-693
▁inst	-694
▁también	-695
▁encon	-696
adie	-697
▁Denísov	-698
▁misma	-699
▁fu	-700
▁cuanto	-701
▁fin	-702
onces	-703
▁feli	-704
▁conver	-705
cto	-706
▁To	-707
omb	-708
▁all	-709
▁puer	-710
▁O	-711
tre	-712
▁cosa	-713
▁fr	-714
▁ante	-715
▁otros	-716
▁mej	-717
eno	-718
▁viejo	-719
▁batalla	-720
ias	-721
▁Est	-722
amos	-723
ig	-724
oria	-725
▁dirig	-726
oy	-727
▁acercó	-728
yor	-729
▁tien	-730
▁hacía	-731
▁puede	-732
▁tran	-733
▁últi	-734
ina	-735
▁tom	-736
lig	-737
▁men	-738
tiv	-739
▁nuest	-740
▁tanto	-741
ura	-742
▁Cuando	-743
▁pes	-744
▁jo	-745
▁veces	-746
có	-747
quier	-748
ij	-749
▁De	-750
▁mom	-751
eron	-752
▁peque	-753
quí	-754
pañ	-755
▁va	-756
▁aun	-757
▁ene	-758
▁miró	-759
▁hub	-760
▁respon	-761
Es	-762
ne	-763
▁unos	-764
▁franc	-765
▁G	-766
ct	-767
gún	-768
▁escu	-769
iente	-770
▁comen	-771
▁pronto	-772
▁encontr	-773
▁hablar	-774
▁sa	-775
dor	-776
zar	-777
▁puerta	-778
ándo	-779
▁quer	-780
▁guer	-781
rió	-782
tido	-783
▁cont	-784
▁hecho	-785
▁francés	-786
yó	-787
▁dist	-788
▁joven	-789
▁ocur	-790
▁haber	-791
▁iba	-792
▁nadie	-793
▁silen	-794
▁mes	-795
▁campo	-796
▁tu	-797
uesto	-798
▁mucho	-799
qui	-800
▁ayud	-801
▁parte	-802
▁tropas	-803
ka	-804
▁muer	-805
▁aún	-806
▁pie	-807
ide	-808
▁op	-809
▁cap	-810
▁lib	-811
til	-812
▁gu	-813
▁habita	-814
cono	-815
▁eran	-816
▁estaban	-817
mientos	-818
▁ves	-819
▁verdad	-820
▁ci	-821
Sí	-822
▁Dólo	-823
▁estu	-824
ancia	-825
▁aquí	-826
▁Dólojov	-827
▁sonrisa	-828
zos	-829
▁can	-830
▁herman	-831
entras	-832
▁recor	-833
cip	-834
arlo	-835
▁person	-836
▁hum	-837
almente	-838
uso	-839
▁bra	-840
▁jefe	-841
ír	-842
Por	-843
vich	-844
▁gra	-845
▁camino	-846
raba	-847
▁mat	-848
▁movi	-849
gra	-850
tando	-851
▁conversa	-852
cel	-853
zas	-854
▁fa	-855
▁tal	-856
imo	-857
▁hizo	-858
áp	-859
ire	-860
tivo	-861
trás	-862
lovna	-863
▁gritó	-864
▁recib	-865
▁conf	-866
▁les	-867
can	-868
zón	-869
▁Su	-870
▁Por	-871
▁Anna	-872
▁entonces	-873
▁cómo	-874
▁detu	-875
▁Borís	-876
▁extra	-877
▁quier	-878
tia	-879
▁avan	-880
▁manos	-881
tras	-882
▁allí	-883
▁momento	-884
cado	-885
▁poco	-886
ob	-887
ído	-888
▁contes	-889
▁Dios	-890
ami	-891
▁junto	-892
▁mejor	-893
▁F	-894
ies	-895
ifi	-896
cion	-897
dían	-898
▁regimiento	-899
▁li	-900
▁Con	-901
▁sentía	-902
▁delante	-903
rist	-904
▁nos	-905
▁ráp	-906
▁caus	-907
▁caballo	-908
▁durante	-909
▁habitación	-910
dado	-911
▁bus	-912
▁hu	-913
▁contra	-914
▁enemigo	-915
ade	-916
mane	-917
▁mayor	-918
inó	-919
ril	-920
...—	-921
▁emb	-922
▁salió	-923
argo	-924
ñana	-925
▁San	-926
▁sido	-927
unca	-928
▁habría	-929
ya	-930
rden	-931
▁Ma	-932
▁hal	-933
▁hijo	-934
gos	-935
chos	-936
▁manera	-937
ard	-938
▁mí	-939
▁ref	-940
áti	-941
▁mil	-942
▁dest	-943
jes	-944
▁silencio	-945
if	-946
▁rela	-947
▁tres	-948
▁debía	-949
ior	-950
▁ju	-951
▁ale	-952
▁rusos	-953
emos	-954
▁acu	-955
▁ade	-956
▁escuch	-957
▁sé	-958
▁ide	-959
▁espe	-960
sar	-961
▁cosas	-962
▁ech	-963
adores	-964
ilidad	-965
▁Vas	-966
▁demás	-967
▁camb	-968
ato	-969
▁dar	-970
▁amor	-971
undo	-972
▁ami	-973
▁mos	-974
▁guerra	-975
segu	-976
▁poder	-977
▁mañana	-978
jas	-979
▁ol	-980
▁cuenta	-981
ico	-982
cción	-983
▁Es	-984
▁vis	-985
▁lado	-986
▁fal	-987
▁han	-988
▁noche	-989
▁nunca	-990
▁paso	-991
ciendo	-992
itu	-993
olk	-994
orme	-995
iones	-996
zaba	-997
▁lugar	-998
▁sabía	-999
ble	-1000
ición	-1001
▁ruso	-1002
▁Lo	-1003
▁ó	-1004
▁bo	-1005
▁pla	-1006
▁obje	-1007
▁fuera	-1008
▁blan	-1009
ág	-1010
▁aunque	-1011
inu	-1012
▁dio	-1013
▁resp	-1014
▁permane	-1015
bur	-1016
▁Un	-1017
▁neg	-1018
▁clar	-1019
▁detuvo	-1020
▁persona	-1021
ñad	-1022
rdenes	-1023
”.	-1024
▁sac	-1025
olkon	-1026
olkonski	-1027
▁mientras	-1028
ló	-1029
▁J	-1030
por	-1031
▁mor	-1032
vit	-1033
▁Petia	-1034
▁alegre	-1035
▁miraba	-1036
▁of	-1037
▁resul	-1038
▁import	-1039
▁órdenes	-1040
gas	-1041
omo	-1042
▁movimiento	-1043
▁conversación	-1044
omp	-1045
ters	-1046
▁fam	-1047
▁mili	-1048
▁sala	-1049
▁exist	-1050
▁expli	-1051
erv	-1052
lej	-1053
tio	-1054
▁camp	-1055
▁menos	-1056
idamente	-1057
▁expresión	-1058
ye	-1059
burgo	-1060
▁añad	-1061
tención	-1062
▁1	-1063
▁instante	-1064
ome	-1065
▁tras	-1066
▁aband	-1067
▁pensaba	-1068
▁sue	-1069
alidad	-1070
▁diver	-1071
grad	-1072
▁contr	-1073
▁posible	-1074
est	-1075
▁bes	-1076
▁carta	-1077
▁record	-1078
igu	-1079
tal	-1080
▁capit	-1081
▁Después	-1082
▁pon	-1083
ierto	-1084
▁desa	-1085
▁vous	-1086
▁Bolkonski	-1087
▁comprender	-1088
▁mie	-1089
▁anim	-1090
▁suce	-1091
▁soldado	-1092
iz	-1093
▁tú	-1094
Pero	-1095
▁visto	-1096
▁hú	-1097
anos	-1098
chas	-1099
elle	-1100
tura	-1101
▁medio	-1102
▁Peters	-1103
▁abandon	-1104
▁primera	-1105
▁Petersburgo	-1106
▁ún	-1107
▁dicho	-1108
▁parti	-1109
mag	-1110
enas	-1111
▁ton	-1112
▁pesar	-1113
▁Vasili	-1114
idas	-1115
udad	-1116
uesta	-1117
▁evid	-1118
▁situ	-1119
▁veía	-1120
▁fuerza	-1121
▁bajo	-1122
▁hace	-1123
▁tiene	-1124
▁iz	-1125
▁bar	-1126
▁int	-1127
▁disp	-1128
▁izquier	-1129
▁caballos	-1130
▁oficiales	-1131
dida	-1132
▁Era	-1133
▁gust	-1134
▁indi	-1135
osotros	-1136
iso	-1137
eras	-1138
usia	-1139
▁dejar	-1140
▁os	-1141
illa	-1142
▁for	-1143
▁imag	-1144
▁ciudad	-1145
▁mirando	-1146
▁otras	-1147
▁div	-1148
cuent	-1149
▁saber	-1150
▁compañ	-1151
ic	-1152
▁Bo	-1153
▁ayudante	-1154
▁respondió	-1155
yo	-1156
▁val	-1157
▁madre	-1158
mej	-1159
ónde	-1160
▁cuer	-1161
dia	-1162
▁Le	-1163
arde	-1164
atole	-1165
▁dere	-1166
▁Anatole	-1167
▁Z	-1168
ine	-1169
ito	-1170
cidad	-1171
▁años	-1172
▁días	-1173
▁mostr	-1174
▁señor	-1175
▁ello	-1176
▁cerca	-1177
▁volun	-1178
tud	-1179
▁consid	-1180
▁evidente	-1181
ró	-1182
nas	-1183
▁casi	-1184
▁esta	-1185
▁feliz	-1186
▁preci	-1187
▁añadió	-1188
▁hablaba	-1189
▁princip	-1190
tía	-1191
irse	-1192
▁cul	-1193
▁vuel	-1194
▁mirada	-1195
gado	-1196
tener	-1197
▁mesa	-1198
quiera	-1199
▁alguna	-1200
▁prepar	-1201
▁cañ	-1202
▁mucha	-1203
▁mundo	-1204
▁personas	-1205
clam	-1206
▁gru	-1207
▁at	-1208
▁et	-1209
esto	-1210
▁ata	-1211
▁ins	-1212
▁aquellos	-1213
Est	-1214
ima	-1215
sas	-1216
▁Mi	-1217
▁mas	-1218
vir	-1219
▁cri	-1220
▁voluntad	-1221
▁siguiente	-1222
cep	-1223
▁Ba	-1224
uego	-1225
taban	-1226
▁distin	-1227
▁pensar	-1228
▁Si	-1229
▁ru	-1230
iado	-1231
▁vio	-1232
▁esas	-1233
▁enten	-1234
▁comenzó	-1235
▁obs	-1236
▁pueb	-1237
▁apare	-1238
▁semej	-1239
▁llegar	-1240
▁ocurri	-1241
▁af	-1242
▁tem	-1243
▁esos	-1244
▁enfer	-1245
▁especi	-1246
▁tier	-1247
éndose	-1248
▁recono	-1249
▁seguía	-1250
▁levantó	-1251
.”	-1252
zado	-1253
▁cump	-1254
▁liber	-1255
▁respe	-1256
▁termin	-1257
▁der	-1258
▁rub	-1259
▁bril	-1260
▁impos	-1261
cog	-1262
▁mé	-1263
▁“¿	-1264
tion	-1265
▁atra	-1266
▁pasar	-1267
adamente	-1268
ica	-1269
▁enf	-1270
▁Elena	-1271
▁señal	-1272
▁trist	-1273
sta	-1274
!...	-1275
▁agu	-1276
▁sub	-1277
▁pl	-1278
▁bas	-1279
▁pol	-1280
▁habl	-1281
▁palabra	-1282
▁sentimiento	-1283
ár	-1284
▁acab	-1285
▁repi	-1286
▁rode	-1287
▁amigo	-1288
▁húsar	-1289
▁puesto	-1290
▁historia	-1291
▁dé	-1292
▁inv	-1293
ievich	-1294
dio	-1295
▁tor	-1296
▁encuent	-1297
tri	-1298
▁dol	-1299
▁igu	-1300
▁var	-1301
▁siguió	-1302
erg	-1303
rar	-1304
caba	-1305
▁aire	-1306
▁punto	-1307
▁militar	-1308
▁todavía	-1309
inar	-1310
▁gal	-1311
▁nin	-1312
taron	-1313
▁este	-1314
▁necesidad	-1315
),	-1316
ocu	-1317
▁ley	-1318
▁Rusia	-1319
▁servi	-1320
▁tarde	-1321
▁quería	-1322
▁terrib	-1323
kov	-1324
▁esf	-1325
▁dire	-1326
En	-1327
▁br	-1328
Cómo	-1329
▁cub	-1330
▁lab	-1331
▁acon	-1332
▁ag	-1333
▁suf	-1334
▁prof	-1335
▁gente	-1336
▁según	-1337
amiento	-1338
▁muerte	-1339
▁tr	-1340
ober	-1341
unci	-1342
▁llor	-1343
entaba	-1344
▁olvid	-1345
▁escrib	-1346
und	-1347
ush	-1348
▁inqu	-1349
▁asust	-1350
▁entró	-1351
▁conven	-1352
Ah	-1353
erdo	-1354
▁hor	-1355
▁incl	-1356
áv	-1357
ion	-1358
anza	-1359
▁desp	-1360
▁Todos	-1361
▁histori	-1362
▁causa	-1363
▁retir	-1364
▁situación	-1365
tor	-1366
▁alto	-1367
▁empez	-1368
▁pasos	-1369
▁quién	-1370
▁imposible	-1371
▁apo	-1372
▁hija	-1373
▁pudo	-1374
▁quedó	-1375
▁separ	-1376
▁vista	-1377
gen	-1378
▁cru	-1379
▁deseo	-1380
▁exper	-1381
▁miedo	-1382
▁inquie	-1383
▁atención	-1384
▁rápidamente	-1385
gnifi	-1386
▁puedo	-1387
▁propia	-1388
inos	-1389
▁san	-1390
▁ocup	-1391
▁volver	-1392
—.	-1393
uri	-1394
xcel	-1395
▁Páv	-1396
▁amb	-1397
▁pen	-1398
▁pier	-1399
▁marcha	-1400
▁mov	-1401
▁noti	-1402
▁recu	-1403
▁razón	-1404
gan	-1405
ord	-1406
▁il	-1407
▁ti	-1408
rump	-1409
▁mío	-1410
▁reun	-1411
▁estado	-1412
sion	-1413
▁Las	-1414
▁solo	-1415
▁salir	-1416
Oh	-1417
▁hon	-1418
▁sup	-1419
andro	-1420
▁Alej	-1421
▁esto	-1422
▁unif	-1423
▁sen	-1424
▁puso	-1425
▁marido	-1426
▁libertad	-1427
ea	-1428
jó	-1429
mon	-1430
qué	-1431
ieran	-1432
▁opin	-1433
▁Bagra	-1434
▁largo	-1435
▁produ	-1436
▁present	-1437
▁sentido	-1438
▁Alejandro	-1439
▁Bagration	-1440
▁“¡	-1441
lante	-1442
▁dolor	-1443
▁estre	-1444
▁proye	-1445
▁bon	-1446
▁dif	-1447
guien	-1448
▁gesto	-1449
irm	-1450
▁daba	-1451
▁sabe	-1452
▁cuerpo	-1453
▁frente	-1454
▁sonrió	-1455
▁contestó	-1456
untos	-1457
▁brazo	-1458
▁exclam	-1459
xcelencia	-1460
▁Pávlovna	-1461
Ya	-1462
gó	-1463
ame	-1464
ágri	-1465
ardia	-1466
▁apro	-1467
▁lágri	-1468
▁dispar	-1469
▁prision	-1470
▁terrible	-1471
tis	-1472
▁pat	-1473
▁modo	-1474
▁despa	-1475
▁super	-1476
▁detrás	-1477
▁alegría	-1478
▁lágrimas	-1479
De	-1480
▁à	-1481
▁hermano	-1482
ará	-1483
teci	-1484
▁bos	-1485
▁soci	-1486
▁asomb	-1487
▁fuerzas	-1488
Se	-1489
uda	-1490
dría	-1491
paña	-1492
iev	-1493
temp	-1494
▁segun	-1495
▁pequeña	-1496
ves	-1497
páti	-1498
▁cin	-1499
illas	-1500
ombre	-1501
▁buen	-1502
cieron	-1503
▁izquierda	-1504
ál	-1505
guin	-1506
mois	-1507
▁abs	-1508
▁unas	-1509
▁pensó	-1510
lu	-1511
aré	-1512
▁def	-1513
▁oír	-1514
inaba	-1515
▁acom	-1516
▁mirar	-1517
moiselle	-1518
cre	-1519
uelo	-1520
▁sea	-1521
parte	-1522
▁capitán	-1523
▁repitió	-1524
ademoiselle	-1525
enne	-1526
pens	-1527
ables	-1528
ierta	-1529
▁alma	-1530
▁inte	-1531
▁primer	-1532
▁necesario	-1533
▁bel	-1534
▁fij	-1535
▁apre	-1536
▁pros	-1537
▁salud	-1538
▁sitio	-1539
▁interes	-1540
Lo	-1541
sí	-1542
isa	-1543
vil	-1544
▁fil	-1545
pátich	-1546
▁conocía	-1547
▁continu	-1548
▁parecer	-1549
▁despacho	-1550
El	-1551
mí	-1552
pi	-1553
atro	-1554
▁plan	-1555
▁Estado	-1556
▁alguien	-1557
▁deseaba	-1558
▁grandes	-1559
▁Alpátich	-1560
▁aconteci	-1561
▁interrump	-1562
Si	-1563
cti	-1564
men	-1565
ensa	-1566
ijái	-1567
▁Todo	-1568
▁pasó	-1569
▁somb	-1570
▁Mijái	-1571
▁partes	-1572
onaparte	-1573
▁consider	-1574
▁nosotros	-1575
▁servicio	-1576
bil	-1577
▁Me	-1578
▁do	-1579
▁dorm	-1580
▁espal	-1581
▁algunos	-1582
▁exclamó	-1583
▁presencia	-1584
he	-1585
iró	-1586
▁gr	-1587
▁Hab	-1588
▁discu	-1589
▁llegó	-1590
▁comple	-1591
▁observ	-1592
▁pasado	-1593
▁contemp	-1594
od	-1595
ici	-1596
nos	-1597
cida	-1598
vieron	-1599
▁caball	-1600
▁acompañ	-1601
▁llegado	-1602
▁Mijáilovna	-1603
ré	-1604
dir	-1605
▁fre	-1606
▁médi	-1607
▁traba	-1608
▁dirigió	-1609
mbre	-1610
▁alde	-1611
▁vent	-1612
▁demas	-1613
▁parece	-1614
▁pareció	-1615
ux	-1616
ól	-1617
cul	-1618
▁lan	-1619
diendo	-1620
▁Bouri	-1621
▁corri	-1622
▁infan	-1623
▁esperaba	-1624
▁generales	-1625
ste	-1626
itar	-1627
▁oyó	-1628
▁bosque	-1629
▁grande	-1630
▁Bourienne	-1631
▁felicidad	-1632
lex	-1633
▁jó	-1634
▁ban	-1635
venes	-1636
▁cora	-1637
▁idea	-1638
▁famil	-1639
▁grupo	-1640
▁permi	-1641
▁esfuer	-1642
▁jóvenes	-1643
▁mujeres	-1644
▁siquiera	-1645
ese	-1646
gue	-1647
▁cari	-1648
▁simp	-1649
amento	-1650
▁conse	-1651
▁const	-1652
gradable	-1653
▁tranqui	-1654
▁semejante	-1655
sos	-1656
▁inm	-1657
▁tur	-1658
tivos	-1659
umbre	-1660
▁admi	-1661
▁cent	-1662
▁ocul	-1663
▁temb	-1664
▁condi	-1665
▁voces	-1666
▁sintió	-1667
▁campaña	-1668
▁familia	-1669
▁hubiera	-1670
▁llevaba	-1671
▁ho	-1672
▁Una	-1673
▁tomó	-1674
▁condu	-1675
▁estar	-1676
▁igual	-1677
▁signifi	-1678
Que	-1679
pen	-1680
ère	-1681
▁nie	-1682
inero	-1683
▁debe	-1684
▁brazos	-1685
▁gritos	-1686
▁placer	-1687
▁nuestra	-1688
▁vestido	-1689
lón	-1690
▁ah	-1691
ensk	-1692
lido	-1693
mero	-1694
▁coche	-1695
▁nueva	-1696
▁contrario	-1697
ban	-1698
quil	-1699
rían	-1700
sión	-1701
tigu	-1702
▁dice	-1703
▁oscu	-1704
▁lejos	-1705
▁tener	-1706
▁comand	-1707
▁último	-1708
▁Bonaparte	-1709
pare	-1710
inado	-1711
usias	-1712
▁sola	-1713
▁tono	-1714
ajo	-1715
olu	-1716
rov	-1717
▁luz	-1718
▁Sólo	-1719
▁hora	-1720
▁corazón	-1721
▁entusias	-1722
▁comandante	-1723
mol	-1724
cima	-1725
▁Dmí	-1726
▁Sin	-1727
▁gol	-1728
▁soy	-1729
fecto	-1730
▁trans	-1731
imientos	-1732
▁uniforme	-1733
▁cualquier	-1734
▁historiadores	-1735
cal	-1736
▁Du	-1737
▁envi	-1738
▁comer	-1739
▁incen	-1740
▁preocu	-1741
▁tierra	-1742
▁pequeño	-1743
▁seguida	-1744
▁posición	-1745
br	-1746
rm	-1747
onel	-1748
osos	-1749
tería	-1750
▁Desde	-1751
▁Dmítri	-1752
▁pueblo	-1753
▁puente	-1754
▁hallaba	-1755
▁sentado	-1756
▁demasiado	-1757
▁mademoiselle	-1758
Me	-1759
ep	-1760
medi	-1761
tera	-1762
▁pró	-1763
▁dejó	-1764
▁concl	-1765
▁Dmítrie	-1766
▁cañones	-1767
▁derecha	-1768
▁hacerlo	-1769
▁húsares	-1770
edad	-1771
entó	-1772
▁fav	-1773
▁hubo	-1774
▁repe	-1775
iencia	-1776
tiendo	-1777
▁procu	-1778
▁salón	-1779
▁tengo	-1780
▁único	-1781
▁entrar	-1782
▁labios	-1783
▁ningun	-1784
▁última	-1785
▁heridos	-1786
▁Excelencia	-1787
gor	-1788
asto	-1789
comp	-1790
▁acos	-1791
▁iban	-1792
▁niño	-1793
▁Aquel	-1794
▁ideas	-1795
▁libre	-1796
▁sería	-1797
▁embargo	-1798
ria	-1799
iguió	-1800
laban	-1801
tarse	-1802
▁cara	-1803
▁fuego	-1804
tamente	-1805
▁nombre	-1806
▁querido	-1807
▁trataba	-1808
▁comprendió	-1809
ile	-1810
vés	-1811
éis	-1812
char	-1813
chin	-1814
gust	-1815
ortun	-1816
viera	-1817
▁baja	-1818
▁pien	-1819
▁consegu	-1820
▁Andréievich	-1821
og	-1822
—,	-1823
yos	-1824
▁án	-1825
licó	-1826
▁sor	-1827
▁via	-1828
esper	-1829
ridad	-1830
▁alta	-1831
▁perd	-1832
▁Ahora	-1833
▁avanz	-1834
▁repro	-1835
▁desper	-1836
▁sonriendo	-1837
rir	-1838
ielo	-1839
▁lar	-1840
▁ren	-1841
astop	-1842
▁arre	-1843
▁just	-1844
▁consi	-1845
▁Rastop	-1846
▁campes	-1847
▁quiere	-1848
▁sencil	-1849
▁estancia	-1850
▁encuentro	-1851
Ha	-1852
tz	-1853
vas	-1854
▁Ya	-1855
culo	-1856
▁difí	-1857
▁cumpl	-1858
▁fueron	-1859
▁intelig	-1860
▁opinión	-1861
Bu	-1862
her	-1863
jar	-1864
▁az	-1865
ctor	-1866
tumb	-1867
▁Zar	-1868
▁inde	-1869
ciente	-1870
▁frecu	-1871
▁además	-1872
▁encima	-1873
amientos	-1874
▁Durante	-1875
▁nuestro	-1876
▁Dmítrievna	-1877
▁Rastopchin	-1878
▁tí	-1879
anas	-1880
▁pud	-1881
▁llen	-1882
▁ocas	-1883
idades	-1884
▁estoy	-1885
▁gober	-1886
▁propio	-1887
▁coronel	-1888
bo	-1889
▁da	-1890
cidos	-1891
▁cuar	-1892
▁mand	-1893
▁aldea	-1894
▁prome	-1895
▁dinero	-1896
▁gobern	-1897
▁experim	-1898
▁aquellas	-1899
hov	-1900
▁sos	-1901
odinó	-1902
tenía	-1903
▁acep	-1904
▁confi	-1905
▁ruido	-1906
▁triste	-1907
▁entender	-1908
▁prosiguió	-1909
Cu	-1910
lor	-1911
▁Re	-1912
▁acto	-1913
▁bail	-1914
▁char	-1915
▁colo	-1916
▁culp	-1917
▁echó	-1918
▁humo	-1919
ándolo	-1920
▁amist	-1921
iciones	-1922
iéndose	-1923
▁compañía	-1924
▁sociedad	-1925
▁prisioneros	-1926
La	-1927
tel	-1928
▁ta	-1929
▁dam	-1930
▁fun	-1931
tados	-1932
▁caso	-1933
▁diez	-1934
▁honor	-1935
▁rusas	-1936
ciencia	-1937
tividad	-1938
▁llevar	-1939
▁Borodinó	-1940
▁z	-1941
jik	-1942
illo	-1943
▁dom	-1944
▁form	-1945
▁much	-1946
▁alcan	-1947
▁cabel	-1948
▁dónde	-1949
▁satis	-1950
▁blanco	-1951
▁conocer	-1952
▁difícil	-1953
▁piernas	-1954
ge	-1955
óri	-1956
▁Bá	-1957
▁Ha	-1958
▁raz	-1959
▁rev	-1960
▁dign	-1961
▁ofre	-1962
lashov	-1963
terior	-1964
▁atrás	-1965
▁mujik	-1966
▁pecho	-1967
▁alguno	-1968
▁Bálashov	-1969
▁desapare	-1970
▁objetivo	-1971
ampo	-1972
atur	-1973
▁cir	-1974
▁emo	-1975
redor	-1976
▁Smol	-1977
▁coch	-1978
▁pies	-1979
▁ellas	-1980
▁impres	-1981
▁inform	-1982
▁replicó	-1983
▁pregunta	-1984
rá	-1985
Pue	-1986
▁Así	-1987
arios	-1988
▁actu	-1989
▁oído	-1990
cación	-1991
▁bueno	-1992
▁débil	-1993
▁retro	-1994
▁carros	-1995
▁tenían	-1996
▁través	-1997
▁descono	-1998
▁extraño	-1999
ezú	-2000
lado	-2001
▁bal	-2002
▁ces	-2003
▁lín	-2004
▁sur	-2005
▁capa	-2006
▁ceño	-2007
▁sole	-2008
▁suje	-2009
ampoco	-2010
tación	-2011
▁algún	-2012
▁golpe	-2013
▁cuatro	-2014
▁llorar	-2015
▁médico	-2016
▁Smolensk	-2017
eb	-2018
udo	-2019
oles	-2020
tada	-2021
▁Bezú	-2022
tonces	-2023
▁invit	-2024
▁manif	-2025
▁conclu	-2026
ibilidad	-2027
osamente	-2028
▁hombros	-2029
▁primero	-2030
▁importante	-2031
erse	-2032
▁tío	-2033
ushka	-2034
▁flan	-2035
▁frun	-2036
▁pape	-2037
▁escri	-2038
▁están	-2039
▁fuerte	-2040
▁Bezújov	-2041
▁gracias	-2042
).	-2043
ilo	-2044
▁nú	-2045
iraba	-2046
▁allá	-2047
▁cuel	-2048
▁real	-2049
▁Mayor	-2050
▁cierto	-2051
▁algunas	-2052
▁llegada	-2053
▁noticia	-2054
▁quienes	-2055
▁comprendía	-2056
Te	-2057
ám	-2058
▁bor	-2059
▁bur	-2060
▁hos	-2061
▁atre	-2062
▁falta	-2063
▁acción	-2064
▁cosacos	-2065
▁rostros	-2066
cé	-2067
pó	-2068
úb	-2069
rón	-2070
sen	-2071
vos	-2072
ritu	-2073
usil	-2074
▁gor	-2075
▁Berg	-2076
▁asist	-2077
▁despe	-2078
▁favor	-2079
▁fusil	-2080
▁oblig	-2081
▁vivir	-2082
▁aquello	-2083
Eh	-2084
pos	-2085
ñas	-2086
▁Gu	-2087
vista	-2088
▁Como	-2089
▁sens	-2090
dieron	-2091
ración	-2092
▁asegu	-2093
▁cambi	-2094
▁guard	-2095
▁leyes	-2096
▁temor	-2097
▁hacían	-2098
▁inmedi	-2099
▁muched	-2100
▁asuntos	-2101
▁históri	-2102
▁derredor	-2103
▁actividad	-2104
▁condiciones	-2105
Yo	-2106
▁k	-2107
ñka	-2108
itad	-2109
rido	-2110
vent	-2111
▁amo	-2112
▁azul	-2113
▁galo	-2114
▁sorp	-2115
uestos	-2116
▁adver	-2117
▁carro	-2118
▁filas	-2119
▁patio	-2120
▁verlo	-2121
▁contar	-2122
icamente	-2123
▁ocurrido	-2124
▁campesinos	-2125
▁encontraba	-2126
▁muchedumbre	-2127
gaba	-2128
▁vir	-2129
rimon	-2130
▁Para	-2131
▁besó	-2132
▁grue	-2133
▁pase	-2134
▁próx	-2135
▁pues	-2136
▁demos	-2137
▁descu	-2138
▁hijos	-2139
▁mitad	-2140
▁varias	-2141
▁esperar	-2142
▁retroce	-2143
?”,	-2144
▁er	-2145
iene	-2146
pera	-2147
▁Par	-2148
▁qui	-2149
Quién	-2150
lando	-2151
zando	-2152
▁ayuda	-2153
▁buena	-2154
▁natur	-2155
▁sombr	-2156
▁volvi	-2157
▁cuello	-2158
▁esposa	-2159
▁herido	-2160
▁acuerdo	-2161
▁interrumpió	-2162
ctos	-2163
tante	-2164
unque	-2165
▁Kura	-2166
▁aust	-2167
▁enga	-2168
▁abrió	-2169
▁apenas	-2170
▁ataque	-2171
▁habitu	-2172
▁muchas	-2173
▁número	-2174
▁quiero	-2175
▁También	-2176
▁esfuerzo	-2177
▁nuestros	-2178
jaba	-2179
▁agua	-2180
▁vict	-2181
▁baile	-2182
▁busca	-2183
▁colum	-2184
▁sentó	-2185
▁comida	-2186
▁cuales	-2187
▁volvía	-2188
▁hermana	-2189
▁tiempos	-2190
▁especial	-2191
▁escuchaba	-2192
be	-2193
adi	-2194
▁cr	-2195
?...	-2196
gnor	-2197
▁eje	-2198
▁evi	-2199
antos	-2200
cando	-2201
▁minu	-2202
minist	-2203
ándole	-2204
▁vieja	-2205
▁antigu	-2206
▁flanco	-2207
▁mismos	-2208
▁seguir	-2209
cimiento	-2210
▁amistad	-2211
▁ventana	-2212
▁importancia	-2213
▁volviéndose	-2214
enn	-2215
ola	-2216
idez	-2217
lada	-2218
rens	-2219
tida	-2220
tiva	-2221
▁don	-2222
gados	-2223
isión	-2224
▁Aust	-2225
▁anci	-2226
▁prob	-2227
▁calle	-2228
samente	-2229
▁imagin	-2230
▁muerto	-2231
▁pasaba	-2232
▁rublos	-2233
▁austría	-2234
▁manifes	-2235
▁Kuraguin	-2236
▁acontecimientos	-2237
cun	-2238
fes	-2239
ósi	-2240
cent	-2241
cién	-2242
ment	-2243
mido	-2244
▁due	-2245
▁van	-2246
▁apres	-2247
▁march	-2248
▁pelig	-2249
▁cartas	-2250
▁descan	-2251
▁emperador	-2252
▁encontrar	-2253
▁respuesta	-2254
▁infantería	-2255
▁sentimientos	-2256
óme	-2257
▁In	-2258
▁fá	-2259
▁go	-2260
ribu	-2261
▁beb	-2262
▁hoy	-2263
▁oía	-2264
▁terc	-2265
▁tuvo	-2266
▁cielo	-2267
▁comba	-2268
▁espera	-2269
▁motivo	-2270
▁regres	-2271
▁segura	-2272
▁Guardia	-2273
▁adelante	-2274
▁administ	-2275
▁matrimon	-2276
bu	-2277
tón	-2278
imos	-2279
▁aut	-2280
▁mam	-2281
▁rum	-2282
zaron	-2283
▁vein	-2284
▁jefes	-2285
▁maris	-2286
▁morir	-2287
▁sollo	-2288
▁confus	-2289
▁desgra	-2290
▁podían	-2291
▁miraban	-2292
▁preguntas	-2293
▁posibilidad	-2294
!”,	-2295
gre	-2296
ror	-2297
Bueno	-2298
▁abra	-2299
▁acer	-2300
▁come	-2301
termin	-2302
▁actos	-2303
▁encen	-2304
▁solem	-2305
▁suelo	-2306
▁torno	-2307
▁tenido	-2308
▁disgust	-2309
▁culpable	-2310
av	-2311
ais	-2312
cta	-2313
ván	-2314
▁au	-2315
iese	-2316
itas	-2317
▁año	-2318
▁pid	-2319
demos	-2320
▁exig	-2321
▁fras	-2322
▁ilum	-2323
entado	-2324
▁recog	-2325
▁corrió	-2326
▁descub	-2327
▁estuvo	-2328
▁ordenó	-2329
▁podría	-2330
▁propósi	-2331
▁acostumb	-2332
▁cabellos	-2333
▁parecían	-2334
▁invitados	-2335
té	-2336
íl	-2337
mán	-2338
umb	-2339
▁Te	-2340
▁oy	-2341
irme	-2342
▁bol	-2343
▁kil	-2344
ennig	-2345
pensó	-2346
trado	-2347
▁apoy	-2348
▁arru	-2349
▁aspe	-2350
▁será	-2351
▁susp	-2352
▁comun	-2353
▁deber	-2354
▁enemi	-2355
▁excel	-2356
tándose	-2357
ennigsen	-2358
▁demostr	-2359
▁segundo	-2360
▁apareció	-2361
▁contestar	-2362
▁principal	-2363
▁principio	-2364
▁entusiasmo	-2365
▁pensamientos	-2366
ant	-2367
eri	-2368
gul	-2369
igo	-2370
vin	-2371
▁pi	-2372
ijón	-2373
roje	-2374
▁Ili	-2375
▁cól	-2376
▁jam	-2377
▁lig	-2378
▁paz	-2379
▁amar	-2380
▁figu	-2381
▁invi	-2382
▁arras	-2383
▁depen	-2384
▁llamó	-2385
▁cólera	-2386
▁muchos	-2387
▁perros	-2388
▁realidad	-2389
▁Bennigsen	-2390
▁preguntar	-2391
▁resultaba	-2392
tica	-2393
▁Iván	-2394
▁brom	-2395
▁cabo	-2396
▁dado	-2397
▁frío	-2398
▁pasa	-2399
▁rato	-2400
▁detal	-2401
▁diván	-2402
▁prisa	-2403
▁destru	-2404
▁kilóme	-2405
▁podido	-2406
▁capital	-2407
▁criados	-2408
▁señores	-2409
▁acercaba	-2410
▁distingu	-2411
▁haciendo	-2412
▁victoria	-2413
ase	-2414
cin	-2415
▁Po	-2416
▁na	-2417
rede	-2418
óvil	-2419
▁voy	-2420
demás	-2421
▁Tijón	-2422
▁costu	-2423
▁ignor	-2424
▁quiso	-2425
▁viaje	-2426
▁debían	-2427
▁efecto	-2428
▁aspecto	-2429
▁batería	-2430
▁derecho	-2431
tivamente	-2432
▁escuchar	-2433
▁extraord	-2434
▁francesa	-2435
▁caballería	-2436
▁relaciones	-2437
▁u	-2438
reo	-2439
▁pá	-2440
erte	-2441
▁Kar	-2442
▁dan	-2443
▁den	-2444
▁tri	-2445
rando	-2446
▁verg	-2447
▁éste	-2448
jestad	-2449
▁cambio	-2450
▁hermos	-2451
▁peligro	-2452
eraciones	-2453
▁costumbre	-2454
▁matrimonio	-2455
Va	-2456
uro	-2457
▁fi	-2458
rera	-2459
▁juz	-2460
anski	-2461
lones	-2462
▁capo	-2463
▁curi	-2464
▁hogu	-2465
▁casas	-2466
▁seman	-2467
▁supon	-2468
▁tanta	-2469
▁decían	-2470
▁destac	-2471
▁empezó	-2472
▁inmóvil	-2473
▁corriendo	-2474
Al	-2475
ctu	-2476
arme	-2477
ecía	-2478
ulie	-2479
zada	-2480
▁Dan	-2481
▁cog	-2482
▁dul	-2483
itaba	-2484
ushin	-2485
▁boca	-2486
▁desn	-2487
▁limp	-2488
dencia	-2489
lantes	-2490
▁Julie	-2491
▁escal	-2492
▁fácil	-2493
▁impor	-2494
▁orgul	-2495
▁sonre	-2496
▁séqui	-2497
▁Tushin	-2498
▁alemán	-2499
▁salido	-2500
ctamente	-2501
▁decirle	-2502
▁pueblos	-2503
▁relación	-2504
lam	-2505
till	-2506
▁enc	-2507
▁Sper	-2508
▁arro	-2509
▁irri	-2510
vitski	-2511
▁enfad	-2512
▁exten	-2513
▁grave	-2514
iamente	-2515
tenerse	-2516
▁Estaba	-2517
▁despre	-2518
▁enroje	-2519
▁espalda	-2520
▁sorpren	-2521
▁Speranski	-2522
To	-2523
uró	-2524
Dios	-2525
asta	-2526
cios	-2527
jero	-2528
▁Lis	-2529
▁ine	-2530
▁rap	-2531
▁viv	-2532
tidos	-2533
▁salv	-2534
▁volv	-2535
ancias	-2536
▁Había	-2537
▁encar	-2538
▁extre	-2539
▁firme	-2540
▁pedir	-2541
▁circun	-2542
▁dormir	-2543
▁hechos	-2544
▁perder	-2545
▁proble	-2546
esvitski	-2547
▁perdido	-2548
▁trabajo	-2549
ablemente	-2550
▁diversas	-2551
▁encontró	-2552
▁agradable	-2553
▁dirección	-2554
▁especialmente	-2555
▁conversaciones	-2556
eur	-2557
arle	-2558
enza	-2559
vido	-2560
▁Ten	-2561
orado	-2562
▁Iliá	-2563
▁abri	-2564
▁etcé	-2565
▁redu	-2566
▁ambos	-2567
▁estos	-2568
▁forma	-2569
▁influ	-2570
▁comien	-2571
▁descon	-2572
▁deseos	-2573
▁enorme	-2574
▁rubori	-2575
▁vuelta	-2576
atamente	-2577
▁séquito	-2578
▁tampoco	-2579
▁Mientras	-2580
▁etcétera	-2581
▁tratando	-2582
úp	-2583
lom	-2584
one	-2585
tan	-2586
▁Il	-2587
▁Yo	-2588
▁ín	-2589
▁Ser	-2590
▁fra	-2591
▁ind	-2592
▁nar	-2593
▁rod	-2594
▁sev	-2595
ámara	-2596
▁leer	-2597
▁limi	-2598
▁amena	-2599
▁recha	-2600
▁secre	-2601
rededor	-2602
▁buscar	-2603
▁centro	-2604
▁cierta	-2605
▁dejado	-2606
▁repres	-2607
▁sangre	-2608
▁inclinó	-2609
▁pudiera	-2610
▁querida	-2611
▁conocido	-2612
▁determin	-2613
▁diciendo	-2614
▁incendio	-2615
▁Nesvitski	-2616
▁dispuesto	-2617
ron	-2618
▁Di	-2619
Bien	-2620
gles	-2621
tien	-2622
▁aum	-2623
▁caz	-2624
▁gan	-2625
iores	-2626
▁cuya	-2627
▁desc	-2628
▁magn	-2629
▁murm	-2630
▁suyo	-2631
▁vino	-2632
▁Entre	-2633
▁creer	-2634
▁infin	-2635
▁razon	-2636
▁tomar	-2637
▁valor	-2638
▁concent	-2639
▁natural	-2640
▁preocup	-2641
▁pronunci	-2642
▁recuerdo	-2643
▁izquierdo	-2644
▁conciencia	-2645
▁movimientos	-2646
pul	-2647
Gori	-2648
cómo	-2649
erva	-2650
▁ele	-2651
▁mer	-2652
▁ras	-2653
ister	-2654
▁caer	-2655
▁empu	-2656
▁equi	-2657
▁ofen	-2658
▁Lisie	-2659
▁abajo	-2660
▁cinco	-2661
▁susur	-2662
▁artill	-2663
▁suerte	-2664
▁tranqu	-2665
▁llamaba	-2666
▁llegaba	-2667
▁anterior	-2668
▁circunst	-2669
▁retirada	-2670
▁recordaba	-2671
▁tranquila	-2672
▁frecuencia	-2673
▁gobernador	-2674
▁preguntaba	-2675
cón	-2676
▁Hi	-2677
▁za	-2678
▁apa	-2679
▁dec	-2680
▁ext	-2681
▁ido	-2682
▁min	-2683
▁pan	-2684
▁Vera	-2685
▁creo	-2686
▁cuyo	-2687
▁gris	-2688
▁creía	-2689
▁culpa	-2690
▁juego	-2691
▁mando	-2692
▁papel	-2693
▁sacri	-2694
▁Además	-2695
▁acerca	-2696
▁enfermo	-2697
▁ninguna	-2698
▁silenci	-2699
▁últimos	-2700
▁Majestad	-2701
▁contento	-2702
▁superior	-2703
▁precisamente	-2704
ale	-2705
▁té	-2706
gada	-2707
ilib	-2708
tían	-2709
▁Sus	-2710
▁ahí	-2711
▁ens	-2712
▁pañ	-2713
caban	-2714
▁cans	-2715
▁esca	-2716
▁turb	-2717
▁línea	-2718
▁nieve	-2719
▁niños	-2720
▁trata	-2721
▁asunto	-2722
▁distra	-2723
▁famili	-2724
▁cuantos	-2725
▁emoción	-2726
▁entrada	-2727
▁recibir	-2728
▁recibió	-2729
▁temblor	-2730
entamente	-2731
▁propósito	-2732
▁alegremente	-2733
Le	-2734
drá	-2735
rso	-2736
una	-2737
óle	-2738
rada	-2739
▁pér	-2740
▁tre	-2741
▁tím	-2742
ibles	-2743
pación	-2744
óleñka	-2745
▁Bilib	-2746
▁luego	-2747
▁mente	-2748
▁ánimo	-2749
▁amigos	-2750
▁compar	-2751
▁escuad	-2752
▁mismas	-2753
▁hablando	-2754
▁hicieron	-2755
▁mostraba	-2756
▁brillantes	-2757
▁kilómetros	-2758
▁permanecía	-2759
bla	-2760
cla	-2761
rio	-2762
ást	-2763
▁aj	-2764
Está	-2765
arla	-2766
como	-2767
▁env	-2768
▁sob	-2769
cular	-2770
ierno	-2771
laron	-2772
rador	-2773
▁Fran	-2774
▁cruz	-2775
▁eleg	-2776
▁ment	-2777
▁convo	-2778
▁difer	-2779
▁Aunque	-2780
▁cosaco	-2781
▁mister	-2782
▁ocasión	-2783
▁bastante	-2784
▁espaldas	-2785
▁militares	-2786
▁inmediatamente	-2787
lic	-2788
▁ge	-2789
Para	-2790
▁Vil	-2791
▁bre	-2792
▁lej	-2793
didas	-2794
íritu	-2795
▁casu	-2796
▁peti	-2797
▁quin	-2798
iertos	-2799
osidad	-2800
▁expon	-2801
▁fuese	-2802
▁incon	-2803
▁ingen	-2804
▁poner	-2805
▁terren	-2806
▁venido	-2807
▁viejos	-2808
▁Bilibin	-2809
▁alegres	-2810
▁comentó	-2811
▁momentos	-2812
▁muchacho	-2813
!”	-2814
mes	-2815
▁mú	-2816
Vaya	-2817
jado	-2818
noie	-2819
▁ali	-2820
▁dor	-2821
Dónde	-2822
ísimo	-2823
▁cuad	-2824
▁duda	-2825
▁enam	-2826
▁viol	-2827
cultad	-2828
encias	-2829
▁Sober	-2830
▁común	-2831
▁deten	-2832
▁hemos	-2833
▁veían	-2834
osición	-2835
▁bondad	-2836
▁causas	-2837
▁incomp	-2838
▁ningún	-2839
▁nuevas	-2840
▁pálido	-2841
▁reflex	-2842
▁anciano	-2843
▁dejando	-2844
▁interro	-2845
▁quedaba	-2846
▁excelente	-2847
▁señalando	-2848
▁permaneció	-2849
uv	-2850
hin	-2851
▁id	-2852
abía	-2853
eres	-2854
▁cha	-2855
▁num	-2856
culos	-2857
▁Guer	-2858
▁Lisa	-2859
▁dedi	-2860
▁sacu	-2861
▁tern	-2862
▁claro	-2863
▁evitar	-2864
▁objeto	-2865
▁propor	-2866
▁satisf	-2867
▁señora	-2868
▁varios	-2869
▁contaba	-2870
▁inesper	-2871
▁preciso	-2872
▁explicar	-2873
▁noticias	-2874
▁alrededor	-2875
▁tranquilo	-2876
oz	-2877
Con	-2878
pit	-2879
ífi	-2880
▁gl	-2881
Quer	-2882
▁Bar	-2883
▁adi	-2884
▁sie	-2885
▁sir	-2886
iedad	-2887
medad	-2888
▁cuid	-2889
▁exam	-2890
▁fies	-2891
▁pena	-2892
▁veci	-2893
mentos	-2894
▁desor	-2895
▁gorro	-2896
▁llevó	-2897
▁menor	-2898
▁noble	-2899
▁convoy	-2900
▁descar	-2901
▁mujiks	-2902
▁patria	-2903
▁pueden	-2904
▁esperanza	-2905
▁intención	-2906
▁incomprens	-2907
▁evidentemente	-2908
dó	-2909
ala	-2910
chá	-2911
orn	-2912
▁ja	-2913
ondo	-2914
úkov	-2915
▁une	-2916
▁vas	-2917
zados	-2918
▁digo	-2919
▁reír	-2920
▁casti	-2921
▁ejemp	-2922
▁jamás	-2923
▁lleno	-2924
▁prote	-2925
▁provo	-2926
▁sufri	-2927
▁tales	-2928
▁vivía	-2929
itantes	-2930
▁sentir	-2931
▁tienen	-2932
▁acababa	-2933
▁atraves	-2934
▁pañuelo	-2935
▁Soberano	-2936
▁espíritu	-2937
▁sucedido	-2938
▁escuadrón	-2939
▁francesas	-2940
▁personajes	-2941
Mi	-2942
rer	-2943
sal	-2944
tán	-2945
▁Qu	-2946
▁is	-2947
enso	-2948
lito	-2949
plom	-2950
selo	-2951
tifi	-2952
▁río	-2953
dente	-2954
titud	-2955
▁cher	-2956
▁difi	-2957
▁haya	-2958
▁Algun	-2959
▁armas	-2960
▁darse	-2961
▁estas	-2962
▁queda	-2963
▁apartó	-2964
▁conoce	-2965
▁cortes	-2966
▁cámara	-2967
▁descen	-2968
▁diplom	-2969
▁insist	-2970
▁indifer	-2971
▁minutos	-2972
▁ocurrir	-2973
▁podemos	-2974
▁respeto	-2975
▁sentada	-2976
▁solemne	-2977
▁tercera	-2978
▁recibido	-2979
▁vosotros	-2980
▁claramente	-2981
▁circunstancias	-2982
gi	-2983
ác	-2984
Eso	-2985
aia	-2986
lez	-2987
ous	-2988
▁Sí	-2989
aran	-2990
ioso	-2991
▁Cor	-2992
▁cob	-2993
▁rey	-2994
jeron	-2995
skaia	-2996
zaban	-2997
▁laca	-2998
▁nomb	-2999
▁obli	-3000
▁romp	-3001
bación	-3002
uestas	-3003
ándola	-3004
▁arreg	-3005
▁bella	-3006
▁conce	-3007
▁contó	-3008
▁dando	-3009
▁horas	-3010
▁igles	-3011
▁proce	-3012
▁absolu	-3013
▁minist	-3014
▁veinte	-3015
▁gritaba	-3016
▁gustaba	-3017
▁hacerse	-3018
▁hubiese	-3019
▁ocurría	-3020
▁continuó	-3021
▁sonriente	-3022
▁terminado	-3023
▁semejantes	-3024
▁desagradable	-3025
op	-3026
atá	-3027
chó	-3028
tur	-3029
ines	-3030
lica	-3031
vado	-3032
▁Per	-3033
▁pun	-3034
▁rin	-3035
cepto	-3036
inada	-3037
uelto	-3038
▁Alex	-3039
▁bigo	-3040
▁espa	-3041
▁fría	-3042
▁jine	-3043
▁risa	-3044
atáiev	-3045
▁encog	-3046
▁engañ	-3047
▁incor	-3048
▁pensa	-3049
▁venía	-3050
▁blanca	-3051
▁galope	-3052
▁humano	-3053
▁recuer	-3054
▁arrastr	-3055
▁consejo	-3056
▁cumplir	-3057
▁propias	-3058
▁ternura	-3059
▁últimas	-3060
▁cubierto	-3061
▁familiar	-3062
▁pequeños	-3063
▁tranquil	-3064
▁Nikóleñka	-3065
▁posiciones	-3066
Un	-3067
fo	-3068
bas	-3069
iaz	-3070
vis	-3071
Pues	-3072
pero	-3073
tara	-3074
urat	-3075
▁Eso	-3076
▁edu	-3077
▁mad	-3078
▁pad	-3079
Ahora	-3080
entar	-3081
ormes	-3082
quist	-3083
▁Mija	-3084
▁firm	-3085
▁logr	-3086
uestra	-3087
▁Murat	-3088
▁amiga	-3089
▁belle	-3090
▁domin	-3091
▁estal	-3092
▁hacen	-3093
▁lanzó	-3094
▁moral	-3095
▁perfe	-3096
▁saque	-3097
▁silla	-3098
▁vamos	-3099
▁bienes	-3100
▁capote	-3101
▁gloria	-3102
▁grueso	-3103
▁negros	-3104
▁siento	-3105
▁simple	-3106
▁explicó	-3107
▁extraña	-3108
▁hablaban	-3109
▁hermanos	-3110
▁Karatáiev	-3111
▁existencia	-3112
mir	-3113
oll	-3114
árb	-3115
▁éx	-3116
dole	-3117
erli	-3118
▁mem	-3119
▁tir	-3120
▁vís	-3121
cible	-3122
ácter	-3123
▁músi	-3124
▁peor	-3125
▁perm	-3126
erlitz	-3127
terías	-3128
▁agrad	-3129
▁duque	-3130
▁human	-3131
▁humor	-3132
▁nariz	-3133
▁debajo	-3134
▁profun	-3135
▁siendo	-3136
▁cochero	-3137
▁enviado	-3138
▁recordó	-3139
▁carácter	-3140
▁detalles	-3141
▁diversos	-3142
▁interior	-3143
▁llegaron	-3144
▁diplomáti	-3145
▁esperando	-3146
▁oscuridad	-3147
▁reconocer	-3148
▁verdadero	-3149
▁Austerlitz	-3150
▁dificultad	-3151
▁enfermedad	-3152
▁acercándose	-3153
éri	-3154
cada	-3155
clay	-3156
inas	-3157
sejo	-3158
▁Mar	-3159
▁dob	-3160
arlos	-3161
carse	-3162
▁arri	-3163
▁debo	-3164
▁fing	-3165
▁jard	-3166
▁niña	-3167
▁polí	-3168
▁silb	-3169
▁surg	-3170
▁ínti	-3171
acción	-3172
▁chère	-3173
▁cuest	-3174
▁media	-3175
▁sueño	-3176
pensaba	-3177
▁adelan	-3178
▁aprove	-3179
▁cariño	-3180
▁doncel	-3181
▁humana	-3182
▁perten	-3183
▁tienes	-3184
▁Barclay	-3185
▁asombro	-3186
▁seguían	-3187
entemente	-3188
▁asustado	-3189
▁conquist	-3190
▁llevaban	-3191
▁mariscal	-3192
▁pensando	-3193
▁recordar	-3194
▁rodeaban	-3195
▁acercarse	-3196
▁impresión	-3197
▁compañeros	-3198
▁cualquiera	-3199
▁acontecimiento	-3200
ché	-3201
cir	-3202
ece	-3203
ill	-3204
ull	-3205
via	-3206
▁Ap	-3207
▁So	-3208
ablo	-3209
caso	-3210
ille	-3211
vist	-3212
▁Mas	-3213
▁afe	-3214
▁nub	-3215
▁pus	-3216
▁ron	-3217
▁rue	-3218
untar	-3219
▁aver	-3220
▁bajó	-3221
▁cama	-3222
▁dama	-3223
▁leve	-3224
▁merc	-3225
▁orig	-3226
▁oían	-3227
▁pala	-3228
▁pour	-3229
▁suya	-3230
▁tout	-3231
respon	-3232
▁breve	-3233
▁escon	-3234
▁habló	-3235
▁negro	-3236
▁sever	-3237
▁venta	-3238
▁única	-3239
cciones	-3240
▁existe	-3241
▁vuelto	-3242
▁Algunos	-3243
▁ciencia	-3244
▁confirm	-3245
▁conmigo	-3246
▁estreme	-3247
▁fortifi	-3248
▁llevado	-3249
▁muertos	-3250
▁permiso	-3251
▁quieres	-3252
▁Entonces	-3253
▁asustada	-3254
▁decidido	-3255
▁escribir	-3256
▁primeros	-3257
▁humanidad	-3258
▁responder	-3259
▁sensación	-3260
▁casualidad	-3261
▁curiosidad	-3262
▁inteligente	-3263
ap	-3264
mu	-3265
gon	-3266
lov	-3267
tte	-3268
xto	-3269
yas	-3270
éro	-3271
izar	-3272
▁cad	-3273
▁mez	-3274
▁niñ	-3275
▁árb	-3276
ciera	-3277
tirse	-3278
▁Hipó	-3279
▁ense	-3280
▁supo	-3281
▁vaci	-3282
▁vivo	-3283
iertas	-3284
▁amaba	-3285
▁caído	-3286
▁derro	-3287
▁serio	-3288
▁aleman	-3289
▁dejaba	-3290
▁estudi	-3291
▁hallar	-3292
▁cambiar	-3293
▁consigo	-3294
▁consist	-3295
▁extremo	-3296
▁profund	-3297
▁respetu	-3298
▁muchacha	-3299
▁problema	-3300
▁salieron	-3301
▁ayudantes	-3302
▁correspon	-3303
▁solamente	-3304
Di	-3305
ai	-3306
tá	-3307
gua	-3308
mar	-3309
bles	-3310
ches	-3311
eran	-3312
osas	-3313
tico	-3314
udos	-3315
▁amp	-3316
▁gui	-3317
▁tab	-3318
caron	-3319
chaba	-3320
citos	-3321
venir	-3322
▁Vien	-3323
▁alej	-3324
▁cien	-3325
▁diré	-3326
▁edad	-3327
▁obst	-3328
▁pose	-3329
▁Nadie	-3330
▁comme	-3331
▁dulce	-3332
▁energ	-3333
▁repar	-3334
▁rumor	-3335
▁salía	-3336
▁suyos	-3337
éievich	-3338
▁Mijaíl	-3339
▁bailar	-3340
▁hospit	-3341
▁querer	-3342
▁reflej	-3343
abilidad	-3344
▁combate	-3345
▁escrito	-3346
▁miradas	-3347
▁ninguno	-3348
▁Hipólito	-3349
▁nuestras	-3350
▁históricos	-3351
▁consideraba	-3352
ey	-3353
alo	-3354
arg	-3355
ish	-3356
rak	-3357
rol	-3358
sie	-3359
▁asi	-3360
▁baj	-3361
▁cla	-3362
▁fie	-3363
▁log	-3364
▁ojo	-3365
arias	-3366
▁prue	-3367
▁sacó	-3368
▁temp	-3369
▁Antes	-3370
▁atorm	-3371
▁dedos	-3372
▁estás	-3373
▁atacar	-3374
▁extran	-3375
▁llamar	-3376
▁niebla	-3377
▁visita	-3378
caciones	-3379
▁espacio	-3380
▁funcion	-3381
▁partida	-3382
▁visitar	-3383
▁concluyó	-3384
▁llegaban	-3385
▁señorita	-3386
▁tristeza	-3387
▁conseguir	-3388
▁reflexion	-3389
▁seguridad	-3390
▁habitantes	-3391
▁particular	-3392
▁proporcion	-3393
▁únicamente	-3394
▁seguramente	-3395
▁completamente	-3396
dar	-3397
lon	-3398
lub	-3399
▁ado	-3400
▁mue	-3401
▁obe	-3402
anzas	-3403
olver	-3404
▁cerr	-3405
▁exci	-3406
▁héro	-3407
▁lobo	-3408
▁some	-3409
▁tard	-3410
ientes	-3411
▁color	-3412
▁estúp	-3413
▁lecho	-3414
▁matar	-3415
▁moles	-3416
▁pidió	-3417
▁relig	-3418
▁suele	-3419
cientos	-3420
mpereur	-3421
▁ocurre	-3422
▁piensa	-3423
▁consecu	-3424
▁incendi	-3425
▁justifi	-3426
▁partici	-3427
▁propios	-3428
▁pérdida	-3429
▁quedado	-3430
▁suspiró	-3431
▁comienzo	-3432
▁constitu	-3433
▁escribió	-3434
▁rodillas	-3435
▁sollozos	-3436
▁desgracia	-3437
▁convencido	-3438
▁desconocido	-3439
▁operaciones	-3440
▁extraordinar	-3441
aj	-3442
tí	-3443
avo	-3444
enó	-3445
fil	-3446
iva	-3447
iza	-3448
ton	-3449
▁Pr	-3450
diós	-3451
icia	-3452
▁Ese	-3453
▁inú	-3454
asion	-3455
asión	-3456
entas	-3457
quete	-3458
tarlo	-3459
uelas	-3460
▁cuán	-3461
▁rusa	-3462
▁seis	-3463
▁sobr	-3464
▁sust	-3465
▁botas	-3466
▁clara	-3467
▁conmo	-3468
▁defen	-3469
▁defin	-3470
▁dicen	-3471
▁llena	-3472
▁miles	-3473
▁prima	-3474
▁ruego	-3475
enísimo	-3476
▁camisa	-3477
▁dispon	-3478
▁inclin	-3479
▁medida	-3480
▁oyeron	-3481
▁relato	-3482
▁salida	-3483
▁seguro	-3484
▁velada	-3485
Entonces	-3486
▁Consejo	-3487
▁apasion	-3488
▁belleza	-3489
▁columna	-3490
▁importa	-3491
▁observa	-3492
▁habitual	-3493
▁incorpor	-3494
▁abandonar	-3495
▁ejércitos	-3496
▁administrador	-3497
?”	-3498
ju	-3499
Sab	-3500
Ten	-3501
cci	-3502
dre	-3503
hib	-3504
ich	-3505
ída	-3506
ervi	-3507
rovo	-3508
▁Dos	-3509
▁Lle	-3510
▁aba	-3511
▁agr	-3512
▁ben	-3513
▁jun	-3514
▁sum	-3515
cante	-3516
cidas	-3517
olgor	-3518
▁Dron	-3519
▁Toll	-3520
▁cayó	-3521
▁cort	-3522
▁exac	-3523
▁quis	-3524
ficial	-3525
inario	-3526
▁calor	-3527
▁capaz	-3528
▁damas	-3529
▁desen	-3530
▁emple	-3531
▁fondo	-3532
▁invol	-3533
▁pobre	-3534
▁siete	-3535
▁viene	-3536
▁adonde	-3537
▁avanzó	-3538
▁música	-3539
▁ocupar	-3540
▁recién	-3541
▁rincón	-3542
▁interés	-3543
▁oportun	-3544
▁princes	-3545
▁repetía	-3546
▁resulta	-3547
▁desesper	-3548
▁ministro	-3549
▁proyecto	-3550
▁brillante	-3551
▁comprendo	-3552
▁inquietud	-3553
▁volvieron	-3554
▁Serenísimo	-3555
▁involuntar	-3556
▁incomprensible	-3557
ml	-3558
oj	-3559
tú	-3560
vr	-3561
ée	-3562
Hay	-3563
Ven	-3564
rob	-3565
rua	-3566
tim	-3567
xim	-3568
▁Pf	-3569
mión	-3570
ñado	-3571
▁Sal	-3572
▁ast	-3573
▁fís	-3574
▁pel	-3575
mento	-3576
ovich	-3577
uropa	-3578
yendo	-3579
▁abur	-3580
▁cerc	-3581
▁haré	-3582
verdad	-3583
ástima	-3584
▁Pfull	-3585
▁botel	-3586
▁frase	-3587
▁libro	-3588
▁éxito	-3589
▁Europa	-3590
▁carrua	-3591
▁consol	-3592
▁figura	-3593
▁herida	-3594
▁padres	-3595
▁severo	-3596
▁virtud	-3597
▁carrera	-3598
▁decidió	-3599
▁hablado	-3600
▁puestos	-3601
▁rapidez	-3602
▁terreno	-3603
olgorúkov	-3604
▁contradi	-3605
▁cuarenta	-3606
▁primeras	-3607
▁quedarse	-3608
▁encuentra	-3609
▁esperaban	-3610
▁proyectos	-3611
▁encontrado	-3612
▁prisionero	-3613
uz	-3614
capa	-3615
irma	-3616
ovna	-3617
usse	-3618
▁Kre	-3619
▁Mil	-3620
▁Pre	-3621
▁Sch	-3622
▁mía	-3623
atura	-3624
ficio	-3625
table	-3626
uelta	-3627
▁Cada	-3628
▁empe	-3629
▁fenó	-3630
▁mamá	-3631
▁masa	-3632
diente	-3633
▁Viena	-3634
▁alejó	-3635
▁cejas	-3636
▁darle	-3637
▁multi	-3638
▁sopor	-3639
▁trine	-3640
zándose	-3641
▁Semión	-3642
▁anunci	-3643
▁dentro	-3644
▁niñera	-3645
▁precip	-3646
▁provin	-3647
▁sabían	-3648
▁apresur	-3649
▁delgado	-3650
▁destino	-3651
▁semanas	-3652
▁víspera	-3653
▁disparos	-3654
▁distinto	-3655
▁división	-3656
▁expresar	-3657
▁tonterías	-3658
▁Dolgorúkov	-3659
▁imaginación	-3660
Per	-3661
zco	-3662
▁há	-3663
enci	-3664
inta	-3665
iver	-3666
sted	-3667
tero	-3668
tuvo	-3669
vous	-3670
▁red	-3671
gaban	-3672
guchá	-3673
tible	-3674
▁Comp	-3675
▁Zher	-3676
▁dans	-3677
▁enér	-3678
▁pelo	-3679
▁tema	-3680
lación	-3681
▁advir	-3682
▁ampli	-3683
▁corre	-3684
▁grito	-3685
▁larga	-3686
▁movió	-3687
▁risas	-3688
▁verla	-3689
camente	-3690
cepción	-3691
entaban	-3692
▁abrazó	-3693
▁apoder	-3694
▁campos	-3695
▁cantar	-3696
▁conten	-3697
▁corría	-3698
▁disper	-3699
▁incapa	-3700
▁inevit	-3701
▁ingenu	-3702
▁Aquella	-3703
▁Boguchá	-3704
▁Zherkov	-3705
▁conserv	-3706
▁descont	-3707
▁dientes	-3708
▁dirigía	-3709
▁habrían	-3710
▁murmuró	-3711
▁ocupaba	-3712
▁pasaron	-3713
▁próxima	-3714
▁querían	-3715
▁revista	-3716
▁rápidos	-3717
▁treinta	-3718
▁avanzaba	-3719
▁hogueras	-3720
▁acercaban	-3721
▁compañero	-3722
▁debilidad	-3723
▁detenerse	-3724
▁fijamente	-3725
▁personaje	-3726
▁entrevista	-3727
▁Alexéievich	-3728
▁Boguchárovo	-3729
▁experiencia	-3730
▁inteligencia	-3731
He	-3732
gl	-3733
ád	-3734
ñó	-3735
eas	-3736
hev	-3737
jin	-3738
ues	-3739
▁He	-3740
▁on	-3741
▁ví	-3742
atal	-3743
atri	-3744
iano	-3745
lase	-3746
omos	-3747
udas	-3748
urra	-3749
▁Gen	-3750
▁Más	-3751
▁cír	-3752
▁gén	-3753
didos	-3754
iquil	-3755
raban	-3756
texto	-3757
▁Ilín	-3758
▁ador	-3759
▁buta	-3760
▁dije	-3761
▁eter	-3762
▁isba	-3763
▁nous	-3764
▁reti	-3765
▁vaya	-3766
ortuna	-3767
▁Sabía	-3768
▁encan	-3769
▁habrá	-3770
▁masón	-3771
▁Detrás	-3772
▁animal	-3773
▁atribu	-3774
▁embara	-3775
▁enamor	-3776
▁tantos	-3777
▁casarse	-3778
▁ejemplo	-3779
▁entraba	-3780
▁pasillo	-3781
▁pensado	-3782
▁satisfe	-3783
▁seguido	-3784
oraciones	-3785
▁cambiado	-3786
▁columnas	-3787
▁completo	-3788
▁terminar	-3789
▁actuación	-3790
▁austríaco	-3791
▁estuviera	-3792
▁resultado	-3793
▁significa	-3794
▁detuvieron	-3795
▁necesitaba	-3796
▁satisfacción	-3797
omó	-3798
pes	-3799
rot	-3800
▁Ol	-3801
guán	-3802
ison	-3803
onía	-3804
trád	-3805
▁Tal	-3806
▁aus	-3807
▁fur	-3808
▁len	-3809
▁rom	-3810
Estoy	-3811
cados	-3812
entan	-3813
tiles	-3814
veres	-3815
▁Lavr	-3816
▁Toda	-3817
▁eres	-3818
▁fati	-3819
▁impe	-3820
▁piel	-3821
▁pist	-3822
chéiev	-3823
▁Otrád	-3824
▁Recor	-3825
▁abrir	-3826
▁absol	-3827
▁afirm	-3828
▁enter	-3829
▁escog	-3830
▁nervi	-3831
▁obede	-3832
▁sable	-3833
▁triun	-3834
▁abrigo	-3835
▁empren	-3836
▁fiesta	-3837
▁horror	-3838
▁jardín	-3839
▁penoso	-3840
▁pierna	-3841
▁rápido	-3842
▁zaguán	-3843
▁constru	-3844
▁dormido	-3845
▁frunció	-3846
▁llamado	-3847
▁pasaban	-3848
▁renunci	-3849
rakchéiev	-3850
▁mejillas	-3851
▁pretexto	-3852
▁quedaban	-3853
▁Otrádnoie	-3854
▁confusión	-3855
▁procuraba	-3856
▁significado	-3857
▁destacamento	-3858
▁habitaciones	-3859
▁tranquilamente	-3860
Ve	-3861
ev	-3862
Los	-3863
uni	-3864
▁Je	-3865
rito	-3866
▁Ber	-3867
▁abe	-3868
▁dra	-3869
▁dud	-3870
▁oro	-3871
eyrot	-3872
gones	-3873
rarse	-3874
▁Eran	-3875
▁abst	-3876
▁cena	-3877
▁conv	-3878
▁fres	-3879
▁hice	-3880
siones	-3881
▁calló	-3882
▁gusta	-3883
▁imper	-3884
▁monta	-3885
▁ofens	-3886
▁perro	-3887
▁temía	-3888
eración	-3889
▁manifi	-3890
▁nuevos	-3891
▁perdon	-3892
▁porche	-3893
▁recomp	-3894
▁rompió	-3895
eyrother	-3896
utamente	-3897
▁aceptar	-3898
▁avanzar	-3899
▁avergon	-3900
▁buscaba	-3901
▁memoria	-3902
▁parecen	-3903
▁segunda	-3904
▁visible	-3905
▁entraron	-3906
▁hallaban	-3907
▁necesito	-3908
▁olvidado	-3909
▁ordenado	-3910
▁orgullos	-3911
▁respecto	-3912
▁sombrero	-3913
▁ocasiones	-3914
▁Arakchéiev	-3915
▁artillería	-3916
▁extranjero	-3917
▁superiores	-3918
rí	-3919
ug	-3920
?”.	-3921
chi	-3922
ira	-3923
lad	-3924
pti	-3925
ula	-3926
▁lí	-3927
...,	-3928
resa	-3929
ñaba	-3930
▁cho	-3931
▁hun	-3932
▁ses	-3933
ctura	-3934
dónde	-3935
gosto	-3936
sieur	-3937
▁enfr	-3938
▁húme	-3939
▁insi	-3940
▁leía	-3941
▁mala	-3942
aremos	-3943
▁brome	-3944
▁cruel	-3945
▁inici	-3946
▁masas	-3947
▁meses	-3948
▁agosto	-3949
▁agrade	-3950
▁condec	-3951
▁doctor	-3952
▁indeci	-3953
▁mercad	-3954
▁riendo	-3955
▁traído	-3956
paciones	-3957
▁energía	-3958
▁iglesia	-3959
▁jinetes	-3960
▁lástima	-3961
▁numeros	-3962
▁sombrío	-3963
▁suceder	-3964
▁desorden	-3965
▁entregar	-3966
▁infantil	-3967
▁millones	-3968
▁observar	-3969
▁presente	-3970
▁vestidos	-3971
▁Lavrushka	-3972
▁recuerdos	-3973
▁contemplaba	-3974
▁pensamiento	-3975
▁tranquilidad	-3976
up	-3977
dra	-3978
sin	-3979
vez	-3980
atía	-3981
ácti	-3982
▁Esa	-3983
▁caf	-3984
▁die	-3985
▁pál	-3986
entía	-3987
gando	-3988
itado	-3989
viese	-3990
▁Ella	-3991
▁Unos	-3992
▁cate	-3993
▁velo	-3994
uestro	-3995
▁acomo	-3996
▁cariñ	-3997
▁cerró	-3998
▁compr	-3999
▁creyó	-4000
▁desar	-4001
▁dueño	-4002
▁indis	-4003
▁infer	-4004
▁lucha	-4005
▁movía	-4006
▁organ	-4007
▁sigue	-4008
▁venir	-4009
▁votre	-4010
oración	-4011
▁calles	-4012
▁debido	-4013
▁diablo	-4014
▁equivo	-4015
▁lacayo	-4016
▁lentes	-4017
▁perdón	-4018
▁piedad	-4019
▁puedes	-4020
▁salían	-4021
▁tantas	-4022
▁viento	-4023
▁consigu	-4024
▁corrían	-4025
▁felices	-4026
▁informe	-4027
▁mayoría	-4028
▁moverse	-4029
▁partido	-4030
▁postura	-4031
▁respons	-4032
▁sonreía	-4033
▁alemanes	-4034
▁claridad	-4035
▁descanso	-4036
▁enfadado	-4037
▁multitud	-4038
▁presentó	-4039
▁esfuerzos	-4040
▁expresaba	-4041
▁verdadera	-4042
▁acompañado	-4043
▁absolutamente	-4044
Je	-4045
Tú	-4046
az	-4047
ts	-4048
ès	-4049
com	-4050
cur	-4051
eme	-4052
fra	-4053
ute	-4054
ñor	-4055
▁Ar	-4056
▁ul	-4057
eral	-4058
glés	-4059
inci	-4060
iosa	-4061
liar	-4062
mulo	-4063
▁Que	-4064
▁Vol	-4065
▁ama	-4066
▁gob	-4067
▁pap	-4068
diera	-4069
embre	-4070
tadas	-4071
ísima	-4072
▁acar	-4073
▁adiv	-4074
▁idén	-4075
▁irón	-4076
▁olor	-4077
▁tron	-4078
▁acabó	-4079
▁ambas	-4080
▁arran	-4081
▁autor	-4082
▁broma	-4083
▁daban	-4084
▁pedía	-4085
▁retra	-4086
▁sabes	-4087
▁sinti	-4088
▁suces	-4089
▁criado	-4090
▁gracia	-4091
▁grupos	-4092
▁lengua	-4093
▁llenos	-4094
▁mostró	-4095
▁movían	-4096
▁preten	-4097
▁retiró	-4098
Empereur	-4099
▁Francia	-4100
▁asiento	-4101
▁cariños	-4102
▁confuso	-4103
▁entrado	-4104
▁exponer	-4105
▁fortuna	-4106
▁lectura	-4107
▁magnífi	-4108
▁puertas	-4109
▁refería	-4110
▁ambiente	-4111
▁batallón	-4112
▁contener	-4113
▁decisión	-4114
▁doncella	-4115
▁escalera	-4116
▁parecido	-4117
Excelencia	-4118
▁asistente	-4119
▁instantes	-4120
▁campamento	-4121
▁comenzaron	-4122
▁igualmente	-4123
▁comprendido	-4124
▁desapareció	-4125
▁directamente	-4126
▁profundamente	-4127
.)	-4128
ui	-4129
íg	-4130
hum	-4131
pre	-4132
uga	-4133
var	-4134
íte	-4135
hech	-4136
irar	-4137
ismo	-4138
ligr	-4139
mado	-4140
▁Kuz	-4141
▁arb	-4142
▁inj	-4143
▁lin	-4144
ambre	-4145
avout	-4146
conde	-4147
eroso	-4148
gular	-4149
risto	-4150
taría	-4151
usión	-4152
▁Poco	-4153
▁huir	-4154
▁impa	-4155
▁malo	-4156
▁país	-4157
▁pene	-4158
▁sarg	-4159
▁suma	-4160
▁viva	-4161
ctiles	-4162
cuenta	-4163
racias	-4164
salles	-4165
tillas	-4166
▁Corte	-4167
▁bolsa	-4168
▁borde	-4169
▁cañón	-4170
▁enérg	-4171
▁esfor	-4172
▁genio	-4173
▁penas	-4174
▁refer	-4175
▁solas	-4176
▁verde	-4177
▁Danilo	-4178
▁Davout	-4179
▁Guerra	-4180
▁bromas	-4181
▁dormía	-4182
▁espejo	-4183
▁hombro	-4184
▁interv	-4185
▁juzgar	-4186
▁orilla	-4187
▁peligr	-4188
taciones	-4189
▁animado	-4190
▁botella	-4191
▁dirigir	-4192
▁entregó	-4193
▁escapar	-4194
▁estamos	-4195
▁mejores	-4196
▁advertir	-4197
▁alcanzar	-4198
▁apacible	-4199
▁comenzar	-4200
▁inferior	-4201
▁mantenía	-4202
▁necesita	-4203
▁profundo	-4204
▁pusieron	-4205
▁Dessalles	-4206
▁acercaron	-4207
▁avanzaban	-4208
▁cazadores	-4209
▁cincuenta	-4210
▁comenzaba	-4211
▁insignifi	-4212
▁pensativo	-4213
▁volviendo	-4214
▁permanecer	-4215
▁importantes	-4216
▁proyectiles	-4217
▁tímidamente	-4218
▁conocimiento	-4219
Mam	-4220
ieu	-4221
Nada	-4222
cien	-4223
esti	-4224
ezas	-4225
iere	-4226
lian	-4227
lico	-4228
minu	-4229
orde	-4230
▁Com	-4231
▁Del	-4232
▁Pas	-4233
▁Son	-4234
▁Tar	-4235
▁rob	-4236
!...—	-4237
Hurra	-4238
artel	-4239
dirse	-4240
ladas	-4241
unció	-4242
▁Timo	-4243
▁espl	-4244
▁geni	-4245
▁irre	-4246
▁ocho	-4247
▁pola	-4248
▁rojo	-4249
ventud	-4250
▁Emper	-4251
▁acord	-4252
▁caras	-4253
▁dices	-4254
▁embaj	-4255
▁miser	-4256
▁salva	-4257
guardia	-4258
▁acabar	-4259
▁coinci	-4260
▁comuni	-4261
▁fueran	-4262
▁guardó	-4263
▁instal	-4264
▁juntos	-4265
▁resist	-4266
▁ruedas	-4267
▁tercer	-4268
▁General	-4269
▁antiguo	-4270
▁apartar	-4271
▁carroza	-4272
▁conozco	-4273
▁derrota	-4274
▁haberse	-4275
▁olvidar	-4276
▁orgullo	-4277
▁sacrifi	-4278
▁tuviera	-4279
▁contenta	-4280
▁enemigos	-4281
▁juventud	-4282
▁profunda	-4283
▁sencillo	-4284
▁opiniones	-4285
▁preparado	-4286
▁lentamente	-4287
▁explicación	-4288
hí	-4289
ói	-4290
Así	-4291
dón	-4292
ger	-4293
ure	-4294
usi	-4295
▁Bu	-4296
▁Lu	-4297
▁Mo	-4298
▁má	-4299
alla	-4300
dero	-4301
gres	-4302
icio	-4303
saba	-4304
tino	-4305
▁Uno	-4306
▁alf	-4307
▁gar	-4308
▁hel	-4309
▁tot	-4310
▁tér	-4311
▁viz	-4312
▁épo	-4313
Acaso	-4314
ccion	-4315
estro	-4316
▁almo	-4317
▁esté	-4318
▁plus	-4319
▁prom	-4320
▁taba	-4321
▁vano	-4322
▁Todas	-4323
▁admir	-4324
▁anima	-4325
▁banco	-4326
▁barra	-4327
▁borra	-4328
▁crist	-4329
▁grado	-4330
▁haría	-4331
▁homme	-4332
▁inten	-4333
▁miemb	-4334
▁perío	-4335
▁reson	-4336
▁arriba	-4337
▁barran	-4338
▁correr	-4339
▁cuarto	-4340
▁cuesta	-4341
▁descal	-4342
▁desfil	-4343
▁echado	-4344
▁líneas	-4345
▁prolon	-4346
▁saludó	-4347
▁univer	-4348
▁contado	-4349
▁describ	-4350
▁fuertes	-4351
▁guardia	-4352
▁indepen	-4353
▁médicos	-4354
▁nobleza	-4355
▁ocultar	-4356
▁terminó	-4357
▁tomando	-4358
▁pequeñas	-4359
▁política	-4360
▁vizconde	-4361
▁Ivánovich	-4362
▁confianza	-4363
▁demostrar	-4364
▁desprecio	-4365
▁imaginaba	-4366
▁princesas	-4367
▁personales	-4368
▁encontrarse	-4369
▁experimentaba	-4370
Il	-4371
eo	-4372
ni	-4373
vó	-4374
zh	-4375
óg	-4376
gna	-4377
itó	-4378
loj	-4379
áis	-4380
abel	-4381
enar	-4382
enos	-4383
teza	-4384
tili	-4385
▁Mak	-4386
▁fas	-4387
▁júb	-4388
▁lie	-4389
▁mus	-4390
cadas	-4391
izado	-4392
tidas	-4393
tores	-4394
útino	-4395
▁Nada	-4396
▁Tras	-4397
▁agar	-4398
▁haga	-4399
▁horr	-4400
▁luna	-4401
▁mara	-4402
▁rien	-4403
▁ésta	-4404
vieran	-4405
▁Tenía	-4406
▁Vilna	-4407
▁almoh	-4408
▁delic	-4409
▁final	-4410
▁lados	-4411
vamente	-4412
▁Prusia	-4413
▁afirma	-4414
▁espada	-4415
▁frases	-4416
▁inútil	-4417
▁júbilo	-4418
▁oscuro	-4419
▁partir	-4420
▁percib	-4421
▁prueba	-4422
▁quince	-4423
▁reserv	-4424
▁sufici	-4425
▁tendió	-4426
▁trineo	-4427
▁túmulo	-4428
▁vecina	-4429
▁vencer	-4430
▁viendo	-4431
▁vivido	-4432
▁Austria	-4433
▁Cuartel	-4434
▁Parecía	-4435
▁hermoso	-4436
▁hoguera	-4437
▁institu	-4438
▁persegu	-4439
▁prepara	-4440
▁proclam	-4441
▁rumores	-4442
▁carruaje	-4443
▁ignoraba	-4444
▁invierno	-4445
▁particip	-4446
▁relacion	-4447
▁animación	-4448
▁distancia	-4449
▁historias	-4450
▁reconoció	-4451
▁uniformes	-4452
▁influencia	-4453
▁retroceder	-4454
▁regimientos	-4455
▁personalmente	-4456
!”.	-4457
bat	-4458
bet	-4459
cis	-4460
ign	-4461
olo	-4462
oma	-4463
ris	-4464
rup	-4465
íos	-4466
▁Mu	-4467
▁Tú	-4468
icía	-4469
iotr	-4470
tame	-4471
uera	-4472
uras	-4473
vita	-4474
▁Dru	-4475
▁bru	-4476
▁ira	-4477
▁pin	-4478
▁ple	-4479
▁púb	-4480
▁vac	-4481
chado	-4482
entre	-4483
gadas	-4484
lande	-4485
tivas	-4486
torio	-4487
ución	-4488
▁Club	-4489
▁Segu	-4490
▁acog	-4491
▁aten	-4492
▁bona	-4493
▁cele	-4494
▁diga	-4495
▁ergu	-4496
▁guar	-4497
▁pura	-4498
▁radi	-4499
▁reco	-4500
▁subo	-4501
▁tamb	-4502
gación	-4503
hechor	-4504
irando	-4505
riente	-4506
▁camar	-4507
▁duras	-4508
▁imped	-4509
▁inver	-4510
▁plena	-4511
▁utili	-4512
Natasha	-4513
olución	-4514
uniasha	-4515
▁altura	-4516
▁coléri	-4517
▁estrel	-4518
▁futura	-4519
▁medios	-4520
▁misión	-4521
▁presur	-4522
▁quitar	-4523
▁retras	-4524
▁semana	-4525
▁tienda	-4526
▁vestía	-4527
▁bigotes	-4528
▁blancos	-4529
▁cazador	-4530
▁existir	-4531
▁haberlo	-4532
▁incapaz	-4533
▁objetos	-4534
▁ocupado	-4535
▁pistola	-4536
▁policía	-4537
▁produjo	-4538
▁razones	-4539
▁rodeado	-4540
▁sucedía	-4541
▁tendría	-4542
▁Tarútino	-4543
▁conocida	-4544
▁cuestión	-4545
▁desgraci	-4546
▁inquieta	-4547
▁inquieto	-4548
▁llamaban	-4549
▁llevaron	-4550
▁quedaron	-4551
▁sargento	-4552
▁intereses	-4553
▁abandonado	-4554
▁conseguido	-4555
▁esperanzas	-4556
▁procurando	-4557
▁reconocido	-4558
▁suboficial	-4559
▁dirigiéndose	-4560
dí	-4561
fa	-4562
ús	-4563
Des	-4564
aso	-4565
ati	-4566
eau	-4567
isk	-4568
oro	-4569
rel	-4570
rás	-4571
▁Ch	-4572
Cuán	-4573
Vous	-4574
daba	-4575
icos	-4576
locu	-4577
ólov	-4578
▁Erm	-4579
▁Mor	-4580
▁ano	-4581
▁dur	-4582
▁hil	-4583
▁oto	-4584
▁pul	-4585
▁stá	-4586
▁tía	-4587
nidad	-4588
rosta	-4589
▁Esta	-4590
▁bols	-4591
▁espi	-4592
▁list	-4593
▁papá	-4594
▁pipa	-4595
▁rean	-4596
▁repu	-4597
▁sofo	-4598
▁suis	-4599
▁tiró	-4600
lianin	-4601
▁Hasta	-4602
▁alter	-4603
▁balas	-4604
▁beber	-4605
▁casos	-4606
▁celos	-4607
▁curso	-4608
▁dicha	-4609
▁envid	-4610
▁femen	-4611
▁fijos	-4612
▁gusto	-4613
▁hable	-4614
▁hábil	-4615
▁ponía	-4616
▁pueda	-4617
▁seres	-4618
▁subió	-4619
uestras	-4620
▁Drubet	-4621
▁abstra	-4622
▁azules	-4623
▁correo	-4624
▁imagen	-4625
▁matado	-4626
▁pienso	-4627
▁prohib	-4628
▁rápida	-4629
▁Timojin	-4630
▁abierto	-4631
▁acudían	-4632
▁canción	-4633
▁detener	-4634
▁hermosa	-4635
▁ocurrió	-4636
▁palacio	-4637
▁pertene	-4638
▁Telianin	-4639
▁ausencia	-4640
▁barranco	-4641
▁imaginar	-4642
▁levantar	-4643
▁personal	-4644
▁quisiera	-4645
▁stárosta	-4646
▁comenzado	-4647
▁contempló	-4648
▁encantado	-4649
▁mirándolo	-4650
▁presentar	-4651
▁resplande	-4652
▁dispuestos	-4653
▁silencioso	-4654
▁totalmente	-4655
▁descontento	-4656
▁encontraban	-4657
▁acostumbrado	-4658
);	-4659
An	-4660
Mu	-4661
ang	-4662
eda	-4663
ilà	-4664
mor	-4665
sko	-4666
ance	-4667
cura	-4668
edul	-4669
hins	-4670
mino	-4671
trar	-4672
vaba	-4673
vidu	-4674
ídos	-4675
▁Pla	-4676
▁Ter	-4677
▁Tra	-4678
▁ais	-4679
▁har	-4680
▁lum	-4681
▁ord	-4682
▁ore	-4683
▁sua	-4684
▁tos	-4685
▁veo	-4686
adero	-4687
cerdo	-4688
ctiva	-4689
dores	-4690
ienen	-4691
ishna	-4692
ático	-4693
▁Quer	-4694
▁Tomó	-4695
▁alar	-4696
▁band	-4697
▁conj	-4698
▁docu	-4699
▁esco	-4700
▁inex	-4701
▁ital	-4702
▁mozo	-4703
▁octu	-4704
▁perp	-4705
▁popu	-4706
▁reía	-4707
▁sinc	-4708
inados	-4709
▁Shins	-4710
▁clase	-4711
▁convi	-4712
▁duelo	-4713
▁escol	-4714
▁estim	-4715
▁llama	-4716
▁pared	-4717
▁reloj	-4718
▁resto	-4719
▁serie	-4720
▁solía	-4721
▁somos	-4722
▁traje	-4723
▁trató	-4724
▁trote	-4725
▁visit	-4726
▁cambió	-4727
▁cortés	-4728
▁cumpli	-4729
▁hambre	-4730
▁hostil	-4731
▁improv	-4732
▁largos	-4733
▁prince	-4734
▁sillas	-4735
eramente	-4736
▁Compren	-4737
▁Ermólov	-4738
▁ciertas	-4739
▁existía	-4740
▁guerras	-4741
▁octubre	-4742
▁papeles	-4743
▁período	-4744
▁regreso	-4745
▁sacerdo	-4746
▁tenemos	-4747
▁volvían	-4748
▁absoluto	-4749
▁advirtió	-4750
▁batallas	-4751
▁buscando	-4752
▁concepto	-4753
▁desnudos	-4754
▁despertó	-4755
▁gobierno	-4756
▁grandeza	-4757
▁gritaban	-4758
▁hubieran	-4759
▁individu	-4760
▁reciente	-4761
▁reproche	-4762
▁sentarse	-4763
▁soportar	-4764
▁sostenía	-4765
▁constante	-4766
▁divertido	-4767
▁interlocu	-4768
▁prometido	-4769
▁siguiendo	-4770
▁tranquili	-4771
▁cualidades	-4772
▁fácilmente	-4773
▁levantando	-4774
▁levantándose	-4775
▁extraordinario	-4776
▁inesperadamente	-4777
Ma	-4778
au	-4779
cri	-4780
ern	-4781
mió	-4782
rum	-4783
urs	-4784
íst	-4785
▁ai	-4786
Creo	-4787
jada	-4788
mlin	-4789
ñada	-4790
▁fem	-4791
▁iré	-4792
▁tus	-4793
cales	-4794
conos	-4795
jaban	-4796
rados	-4797
ramos	-4798
trodu	-4799
yores	-4800
zarse	-4801
▁agit	-4802
▁dedo	-4803
▁futu	-4804
▁hero	-4805
▁meta	-4806
▁notó	-4807
▁nove	-4808
▁reza	-4809
▁rico	-4810
▁teor	-4811
▁tren	-4812
▁acaba	-4813
▁adqui	-4814
▁divid	-4815
▁engan	-4816
▁error	-4817
▁habla	-4818
▁llega	-4819
▁mosco	-4820
▁quitó	-4821
▁supre	-4822
▁trope	-4823
▁verse	-4824
▁Apenas	-4825
▁Cuanto	-4826
▁abedul	-4827
▁amenaz	-4828
▁coches	-4829
▁confes	-4830
▁cubría	-4831
▁liebre	-4832
▁noches	-4833
▁portal	-4834
▁precep	-4835
▁servir	-4836
▁señaló	-4837
▁tomado	-4838
▁venían	-4839
▁Kremlin	-4840
▁Oriente	-4841
▁actitud	-4842
▁admitir	-4843
▁cuerpos	-4844
▁círculo	-4845
▁disparo	-4846
▁encanto	-4847
▁fusiles	-4848
▁intenso	-4849
▁introdu	-4850
▁marchar	-4851
▁mostrar	-4852
▁observó	-4853
▁próximo	-4854
▁retrato	-4855
▁árboles	-4856
▁Shinshin	-4857
▁brillaba	-4858
▁completa	-4859
▁distinta	-4860
▁exterior	-4861
▁obligado	-4862
▁sentados	-4863
▁solución	-4864
▁ventanas	-4865
▁comprende	-4866
▁condición	-4867
▁dispuesta	-4868
▁enrojeció	-4869
▁improviso	-4870
▁levantado	-4871
▁levantarse	-4872
▁preocupaba	-4873
▁satisfecho	-4874
▁disposición	-4875
▁extraordinaria	-4876
!,	-4877
Dé	-4878
lá	-4879
lí	-4880
mó	-4881
of	-4882
éi	-4883
Cre	-4884
Hab	-4885
Mon	-4886
Son	-4887
dán	-4888
iob	-4889
izá	-4890
nit	-4891
ojo	-4892
pón	-4893
tró	-4894
ómi	-4895
▁Ni	-4896
▁Tu	-4897
Mais	-4898
atos	-4899
bulo	-4900
ceso	-4901
cita	-4902
crib	-4903
dolo	-4904
domo	-4905
ojtú	-4906
rías	-4907
umbr	-4908
usto	-4909
vada	-4910
vera	-4911
▁Bea	-4912
▁Pol	-4913
▁Ven	-4914
▁cál	-4915
▁dev	-4916
▁edi	-4917
▁gas	-4918
▁gem	-4919
▁odi	-4920
▁ori	-4921
▁tim	-4922
cillo	-4923
ctivo	-4924
deras	-4925
erías	-4926
illos	-4927
skoie	-4928
tidad	-4929
▁Miró	-4930
▁Shev	-4931
▁arti	-4932
▁caía	-4933
▁cree	-4934
▁jorn	-4935
▁mais	-4936
▁mira	-4937
▁obra	-4938
▁ángu	-4939
ardinó	-4940
dición	-4941
larski	-4942
íteñka	-4943
▁Dojtú	-4944
▁Estoy	-4945
▁París	-4946
▁Piotr	-4947
▁absur	-4948
▁apoyó	-4949
▁apren	-4950
▁aprob	-4951
▁bello	-4952
▁calma	-4953
▁cocin	-4954
▁cuyas	-4955
▁enseñ	-4956
▁justo	-4957
▁negra	-4958
▁plata	-4959
▁pocos	-4960
▁época	-4961
aciones	-4962
▁bonach	-4963
▁conden	-4964
▁declar	-4965
▁gritar	-4966
▁hacien	-4967
▁iconos	-4968
▁intens	-4969
▁llamas	-4970
▁malhum	-4971
▁maniob	-4972
▁milici	-4973
▁montar	-4974
▁saqueo	-4975
▁sincer	-4976
▁solici	-4977
▁sucede	-4978
▁tratar	-4979
▁tímida	-4980
▁viejas	-4981
▁cansado	-4982
▁cuidado	-4983
▁disminu	-4984
▁dispuso	-4985
▁ofrecía	-4986
▁recibía	-4987
▁señoras	-4988
▁sonreír	-4989
▁sustitu	-4990
▁susurró	-4991
▁término	-4992
▁vueltas	-4993
▁Dojtúrov	-4994
▁Duniasha	-4995
▁absoluta	-4996
▁aparecía	-4997
▁cumplido	-4998
▁desarrol	-4999
▁gritando	-5000
▁hospital	-5001
▁infancia	-5002
▁ofendido	-5003
▁petición	-5004
▁Villarski	-5005
▁levantaba	-5006
▁mayordomo	-5007
▁Shevardinó	-5008
▁austríacos	-5009
▁inevitable	-5010
▁interesaba	-5011
▁mariscales	-5012
▁comparación	-5013
▁permanecían	-5014
▁sorprendido	-5015
▁respetuosamente	-5016
dé	-5017
▁á	-5018
apa	-5019
dka	-5020
lio	-5021
ons	-5022
zan	-5023
...”	-5024
Todo	-5025
aria	-5026
avlo	-5027
cina	-5028
erno	-5029
hier	-5030
paba	-5031
port	-5032
ubil	-5033
usta	-5034
voir	-5035
▁Kal	-5036
▁Pro	-5037
▁Vor	-5038
▁bro	-5039
▁fla	-5040
▁llu	-5041
erode	-5042
lados	-5043
remos	-5044
saban	-5045
tario	-5046
tuoso	-5047
turas	-5048
usset	-5049
áculo	-5050
▁Pens	-5051
▁Viaz	-5052
▁adop	-5053
▁agre	-5054
▁ayer	-5055
▁cadá	-5056
▁fiel	-5057
▁hier	-5058
▁père	-5059
▁sean	-5060
▁vete	-5061
▁útil	-5062
onería	-5063
▁Junto	-5064
▁Pavlo	-5065
▁abund	-5066
▁altos	-5067
▁cargo	-5068
▁cesar	-5069
▁ejecu	-5070
▁envió	-5071
▁fines	-5072
▁héroe	-5073
▁impul	-5074
▁inspe	-5075
▁jubil	-5076
▁jugar	-5077
▁labio	-5078
▁prece	-5079
▁respi	-5080
▁sacar	-5081
▁sudor	-5082
▁veras	-5083
▁vodka	-5084
También	-5085
ónskaia	-5086
▁Platón	-5087
▁aconse	-5088
▁butaca	-5089
▁cuándo	-5090
▁dieron	-5091
▁disfra	-5092
▁engaño	-5093
▁esplén	-5094
▁largas	-5095
▁libros	-5096
▁manten	-5097
▁margen	-5098
▁minuto	-5099
▁pedido	-5100
▁prácti	-5101
▁sufrir	-5102
▁tierna	-5103
▁ulanos	-5104
entación	-5105
teriores	-5106
▁Míteñka	-5107
▁acarici	-5108
▁aniquil	-5109
▁aproxim	-5110
▁arrugas	-5111
▁bosques	-5112
▁caminar	-5113
▁cuentas	-5114
▁estaría	-5115
▁lugares	-5116
▁maestro	-5117
▁mirarlo	-5118
▁necesit	-5119
▁produce	-5120
▁saberlo	-5121
▁solitar	-5122
▁sufrido	-5123
▁tercero	-5124
▁tristes	-5125
▁vientre	-5126
▁víveres	-5127
▁Beausset	-5128
▁banquete	-5129
▁consiste	-5130
▁disparar	-5131
▁dragones	-5132
▁entendía	-5133
▁entiendo	-5134
▁espiritu	-5135
▁oportuno	-5136
▁preparar	-5137
▁pudieran	-5138
▁resolver	-5139
▁segundos	-5140
entimiento	-5141
▁Pavlograd	-5142
▁amistades	-5143
▁asustados	-5144
▁avanzadas	-5145
▁descansar	-5146
▁peligroso	-5147
▁primavera	-5148
▁bienhechor	-5149
▁escuchando	-5150
▁frunciendo	-5151
▁naturaleza	-5152
▁funcionario	-5153
▁respiración	-5154
▁sufrimiento	-5155
▁preparativos	-5156
▁sufrimientos	-5157
▁condecoraciones	-5158
hon	-5159
rim	-5160
sip	-5161
yer	-5162
▁Or	-5163
▁Ra	-5164
▁Ve	-5165
▁Vi	-5166
Aquí	-5167
Mamá	-5168
asen	-5169
eces	-5170
edes	-5171
idió	-5172
iles	-5173
itud	-5174
lina	-5175
ovar	-5176
tres	-5177
uría	-5178
▁Ila	-5179
▁Mme	-5180
▁arm	-5181
▁dep	-5182
▁dit	-5183
▁fri	-5184
▁rar	-5185
▁roj	-5186
enten	-5187
garon	-5188
zadas	-5189
▁Osip	-5190
▁adue	-5191
▁alzó	-5192
▁arte	-5193
▁burl	-5194
▁caza	-5195
▁faut	-5196
▁fijó	-5197
▁moda	-5198
▁nota	-5199
▁paus	-5200
▁perf	-5201
▁pido	-5202
▁reba	-5203
▁recl	-5204
▁semb	-5205
▁tiro	-5206
▁vela	-5207
Adónde	-5208
cional	-5209
ctivos	-5210
lovich	-5211
tieron	-5212
▁Makar	-5213
▁Sobre	-5214
▁acaso	-5215
▁amane	-5216
▁carne	-5217
▁carre	-5218
▁caían	-5219
▁daría	-5220
▁digno	-5221
▁diría	-5222
▁divis	-5223
▁faire	-5224
▁leído	-5225
▁majes	-5226
▁mandó	-5227
▁patas	-5228
▁recon	-5229
▁velas	-5230
chaguin	-5231
▁aguard	-5232
▁aldeas	-5233
▁buenas	-5234
▁buenos	-5235
▁caftán	-5236
▁confun	-5237
▁futuro	-5238
▁grises	-5239
▁lejano	-5240
▁sabido	-5241
▁severa	-5242
▁tabaqu	-5243
▁tomaba	-5244
▁transf	-5245
▁triunf	-5246
▁vieron	-5247
▁ángulo	-5248
▁Ilaguin	-5249
▁Rostova	-5250
▁apuesto	-5251
▁barraca	-5252
▁blancas	-5253
▁depende	-5254
▁miraron	-5255
▁motivos	-5256
▁reducto	-5257
▁rodeaba	-5258
▁sobrino	-5259
▁suponía	-5260
▁ustedes	-5261
▁cubierta	-5262
▁empezaba	-5263
▁estúpida	-5264
▁fruncido	-5265
▁informes	-5266
▁permitía	-5267
▁reunidos	-5268
▁compasión	-5269
▁intervino	-5270
▁siguieron	-5271
▁terribles	-5272
ereschaguin	-5273
▁indiferente	-5274
▁severamente	-5275
▁significaba	-5276
▁desaparecido	-5277
▁dificultades	-5278
▁perfectamente	-5279
▁ruborizándose	-5280
▁responsabilidad	-5281
abe	-5282
bos	-5283
mbé	-5284
▁Ab	-5285
asim	-5286
enes	-5287
icas	-5288
meno	-5289
orge	-5290
skói	-5291
uvre	-5292
vida	-5293
árov	-5294
éspe	-5295
▁Amb	-5296
▁Fió	-5297
▁Hay	-5298
▁Kir	-5299
▁doy	-5300
▁fea	-5301
▁jue	-5302
▁máx	-5303
Puedo	-5304
Usted	-5305
cerse	-5306
drían	-5307
ievna	-5308
tanto	-5309
ticos	-5310
▁ahog	-5311
▁asom	-5312
▁enju	-5313
▁excl	-5314
▁excu	-5315
▁fron	-5316
▁furi	-5317
▁inac	-5318
▁leña	-5319
▁pele	-5320
▁refi	-5321
▁rogó	-5322
▁roja	-5323
▁roto	-5324
Cuándo	-5325
entada	-5326
inando	-5327
rieron	-5328
tíbulo	-5329
írselo	-5330
▁adiós	-5331
▁andar	-5332
▁bille	-5333
▁desea	-5334
▁indef	-5335
▁mezcl	-5336
▁nubes	-5337
▁otoño	-5338
▁pabel	-5339
▁plaza	-5340
▁poses	-5341
▁ramas	-5342
▁redon	-5343
▁resop	-5344
▁saben	-5345
▁susci	-5346
▁total	-5347
dientes	-5348
▁Kaluga	-5349
▁Miraba	-5350
▁Sentía	-5351
▁bellos	-5352
▁casado	-5353
▁cerrar	-5354
▁corpul	-5355
▁cortar	-5356
▁destro	-5357
▁entorn	-5358
▁gentes	-5359
▁género	-5360
▁horrib	-5361
▁huéspe	-5362
▁pantal	-5363
▁reglas	-5364
▁teatro	-5365
ccidente	-5366
ceptible	-5367
▁cabezas	-5368
▁condujo	-5369
▁defensa	-5370
▁escolta	-5371
▁faltaba	-5372
▁hiciera	-5373
▁horrori	-5374
▁ingenua	-5375
▁mayores	-5376
▁popular	-5377
▁reunido	-5378
▁transmi	-5379
▁Guerasim	-5380
▁Semiónov	-5381
▁comprens	-5382
▁dignidad	-5383
▁enfrente	-5384
▁escribía	-5385
▁fenómeno	-5386
▁frecuent	-5387
▁gritaron	-5388
▁hacienda	-5389
▁infinito	-5390
▁miembros	-5391
▁monsieur	-5392
▁ofensiva	-5393
▁permitir	-5394
▁porvenir	-5395
▁radiante	-5396
▁religión	-5397
▁brillaban	-5398
▁capacidad	-5399
▁concluido	-5400
▁descargas	-5401
▁dirigirse	-5402
▁histórico	-5403
▁inmediato	-5404
▁producido	-5405
▁vestíbulo	-5406
▁aprobación	-5407
▁batallones	-5408
▁disparaban	-5409
▁familiares	-5410
▁levantaron	-5411
▁pronunciar	-5412
▁sucediendo	-5413
▁temblorosa	-5414
▁malhumorado	-5415
▁Mademoiselle	-5416
▁indiferencia	-5417
▁razonamiento	-5418
▁probablemente	-5419
Has	-5420
Ser	-5421
Una	-5422
cou	-5423
fía	-5424
idu	-5425
ika	-5426
mín	-5427
vra	-5428
▁fo	-5429
▁im	-5430
▁us	-5431
abas	-5432
aros	-5433
gdán	-5434
itos	-5435
jese	-5436
ozha	-5437
pado	-5438
piro	-5439
tios	-5440
yera	-5441
zoso	-5442
▁Deb	-5443
▁Tan	-5444
▁ago	-5445
▁cel	-5446
▁ceñ	-5447
▁dem	-5448
▁fan	-5449
▁feb	-5450
▁rab	-5451
▁vig	-5452
▁zan	-5453
Sabes	-5454
aldad	-5455
cenas	-5456
chaux	-5457
enski	-5458
erial	-5459
iesen	-5460
orias	-5461
quina	-5462
teras	-5463
tiene	-5464
visto	-5465
ígame	-5466
▁Fera	-5467
▁ases	-5468
▁atar	-5469
▁beau	-5470
▁cruj	-5471
▁daño	-5472
▁dedu	-5473
▁dibu	-5474
▁fait	-5475
▁fund	-5476
▁hamb	-5477
▁heno	-5478
▁hici	-5479
▁lími	-5480
▁odio	-5481
▁pecu	-5482
▁prój	-5483
▁reta	-5484
▁rica	-5485
▁ropa	-5486
▁seda	-5487
▁très	-5488
▁títu	-5489
▁umbr	-5490
cencia	-5491
chando	-5492
póntov	-5493
▁Bueno	-5494
▁Mavra	-5495
▁Mozha	-5496
▁acuer	-5497
▁altas	-5498
▁amado	-5499
▁captu	-5500
▁cette	-5501
▁desli	-5502
▁digna	-5503
▁estan	-5504
▁expul	-5505
▁graci	-5506
▁grata	-5507
▁guapo	-5508
▁humil	-5509
▁lleva	-5510
▁logia	-5511
▁salvo	-5512
▁septi	-5513
▁seren	-5514
▁sospe	-5515
▁tenga	-5516
▁viera	-5517
amentos	-5518
cientes	-5519
eamente	-5520
gamente	-5521
▁Bogdán	-5522
▁Kuzmín	-5523
▁angust	-5524
▁apretó	-5525
▁bestia	-5526
▁colina	-5527
▁cuánto	-5528
▁entero	-5529
▁felici	-5530
▁física	-5531
▁inglés	-5532
▁lluvia	-5533
▁ordena	-5534
▁planes	-5535
▁propon	-5536
▁puntos	-5537
▁quedar	-5538
▁reanud	-5539
▁sillón	-5540
▁umbral	-5541
▁Delante	-5542
▁Michaux	-5543
▁Tampoco	-5544
▁alejaba	-5545
▁atrevía	-5546
▁debemos	-5547
▁decirlo	-5548
▁desvent	-5549
▁echaron	-5550
▁excepto	-5551
▁firmeza	-5552
▁humanas	-5553
▁humanos	-5554
▁ponerse	-5555
▁recoger	-5556
▁silbido	-5557
▁suspiro	-5558
▁Mozhaisk	-5559
▁abiertos	-5560
▁baterías	-5561
▁conocían	-5562
▁defender	-5563
▁discurso	-5564
▁disgusto	-5565
▁enemigas	-5566
▁peculiar	-5567
▁ruborizó	-5568
▁sencilla	-5569
▁considera	-5570
▁educación	-5571
▁embajador	-5572
▁levemente	-5573
▁propuesta	-5574
▁separarse	-5575
▁tabaquera	-5576
▁turbación	-5577
▁Drubetskói	-5578
▁Ferapóntov	-5579
▁llevándose	-5580
▁manifiesto	-5581
▁milicianos	-5582
▁septiembre	-5583
▁Kuzmínishna	-5584
▁atentamente	-5585
▁atormentaba	-5586
▁desconocida	-5587
▁descubierto	-5588
▁diplomático	-5589
▁exactamente	-5590
▁observación	-5591
▁retaguardia	-5592
▁interlocutor	-5593
▁experimentado	-5594
▁consideraciones	-5595
Las	-5596
dri	-5597
nes	-5598
ose	-5599
san	-5600
ólv	-5601
alle	-5602
ator	-5603
jera	-5604
orma	-5605
pole	-5606
ques	-5607
tate	-5608
▁Les	-5609
▁aux	-5610
▁cae	-5611
▁cau	-5612
▁efe	-5613
▁lóg	-5614
▁mol	-5615
▁nut	-5616
Todos	-5617
Vamos	-5618
alaga	-5619
chada	-5620
ental	-5621
larse	-5622
queta	-5623
rissa	-5624
rovna	-5625
tudes	-5626
vados	-5627
vórov	-5628
yeron	-5629
▁Luis	-5630
▁Otro	-5631
▁Pues	-5632
▁barb	-5633
▁boda	-5634
▁loco	-5635
▁mutu	-5636
▁opon	-5637
▁pese	-5638
▁pone	-5639
▁pólv	-5640
▁quit	-5641
▁sonó	-5642
piraba	-5643
rovich	-5644
árselo	-5645
▁Otros	-5646
▁alivi	-5647
▁arrep	-5648
▁comis	-5649
▁corte	-5650
▁huida	-5651
▁invis	-5652
▁limpi	-5653
▁monar	-5654
▁montó	-5655
▁palco	-5656
▁paseo	-5657
▁pleno	-5658
▁saltó	-5659
▁sober	-5660
▁traía	-5661
▁yacía	-5662
damente	-5663
entarse	-5664
radores	-5665
▁Cristo	-5666
▁Drissa	-5667
▁Quería	-5668
▁abejas	-5669
▁afecto	-5670
▁amable	-5671
▁desgar	-5672
▁hambri	-5673
▁notaba	-5674
▁pauvre	-5675
▁piezas	-5676
▁polaco	-5677
▁proyec	-5678
▁pálida	-5679
▁romper	-5680
▁salvar	-5681
▁siente	-5682
▁social	-5683
▁sueños	-5684
▁verano	-5685
▁íntimo	-5686
ciéndole	-5687
▁Suvórov	-5688
▁abierta	-5689
▁bandera	-5690
▁burlona	-5691
▁categor	-5692
▁comprob	-5693
▁debería	-5694
▁dijeron	-5695
▁emocion	-5696
▁escuchó	-5697
▁gemidos	-5698
▁informó	-5699
▁maneras	-5700
▁mentira	-5701
▁montaña	-5702
▁prestar	-5703
▁prójimo	-5704
▁pólvora	-5705
▁regular	-5706
▁sacudió	-5707
▁traslad	-5708
▁abandono	-5709
▁animales	-5710
▁cantidad	-5711
▁cariñosa	-5712
▁despreci	-5713
▁horrible	-5714
▁italiano	-5715
▁milicias	-5716
▁moviendo	-5717
▁ocupaban	-5718
▁pabellón	-5719
▁permitió	-5720
▁restable	-5721
▁simpatía	-5722
▁tuvieron	-5723
▁unidades	-5724
▁Occidente	-5725
▁corriente	-5726
▁despertar	-5727
▁distraído	-5728
▁estuviese	-5729
▁marcharse	-5730
▁masonería	-5731
▁muchachas	-5732
▁muchachos	-5733
▁numerosos	-5734
▁sacerdote	-5735
▁simpático	-5736
▁visitante	-5737
▁vivamente	-5738
▁acompañaba	-5739
▁diferencia	-5740
▁disgustado	-5741
▁distinguir	-5742
▁sacrificio	-5743
▁Emperadores	-5744
▁interesante	-5745
▁Vereschaguin	-5746
▁animadamente	-5747
▁fortificaciones	-5748
Po	-5749
cí	-5750
Era	-5751
ack	-5752
adu	-5753
cab	-5754
dan	-5755
gne	-5756
ils	-5757
itt	-5758
rán	-5759
zon	-5760
▁Ex	-5761
▁dó	-5762
▁ga	-5763
acto	-5764
alos	-5765
ecer	-5766
egún	-5767
iego	-5768
ieza	-5769
lejo	-5770
lich	-5771
olzo	-5772
rero	-5773
sado	-5774
stos	-5775
yone	-5776
▁Cer	-5777
▁Kon	-5778
▁Mon	-5779
▁ala	-5780
▁doc	-5781
▁fro	-5782
▁moi	-5783
▁oje	-5784
▁poé	-5785
▁sam	-5786
▁vin	-5787
Sonia	-5788
arnos	-5789
atriz	-5790
carlo	-5791
iazán	-5792
jando	-5793
jeros	-5794
later	-5795
ortal	-5796
urope	-5797
▁Allí	-5798
▁Krás	-5799
▁alim	-5800
▁arbi	-5801
▁audi	-5802
▁aven	-5803
▁cade	-5804
▁deja	-5805
▁nega	-5806
▁nego	-5807
▁nube	-5808
▁zumb	-5809
inidad	-5810
▁Dicen	-5811
▁Jorge	-5812
▁Marie	-5813
▁Orden	-5814
▁abate	-5815
▁abría	-5816
▁ajust	-5817
▁basta	-5818
▁bonne	-5819
▁caída	-5820
▁cober	-5821
▁conci	-5822
▁cuyos	-5823
▁estra	-5824
▁intim	-5825
▁moder	-5826
▁nueve	-5827
▁pagar	-5828
▁podrá	-5829
▁ronca	-5830
▁seria	-5831
▁suave	-5832
▁trajo	-5833
▁venga	-5834
▁árbol	-5835
Gracias	-5836
Siempre	-5837
inación	-5838
olzogen	-5839
tumbres	-5840
▁Balaga	-5841
▁Moscou	-5842
▁Riazán	-5843
▁aburri	-5844
▁bailes	-5845
▁bayone	-5846
▁cuñada	-5847
▁hablan	-5848
▁héroes	-5849
▁incons	-5850
▁instru	-5851
▁intent	-5852
▁invern	-5853
▁ironía	-5854
▁limitó	-5855
▁origin	-5856
▁partió	-5857
▁piedra	-5858
▁provis	-5859
▁saludo	-5860
▁servía	-5861
▁sonido	-5862
▁subord	-5863
▁teoría	-5864
▁unidad	-5865
ciéndose	-5866
▁Polonia	-5867
▁Siempre	-5868
▁dejaban	-5869
▁desnudo	-5870
▁enferma	-5871
▁esencia	-5872
▁impedir	-5873
▁jornada	-5874
▁ocupada	-5875
▁samovar	-5876
▁santigu	-5877
▁sentían	-5878
▁turbado	-5879
osiciones	-5880
▁Krásnoie	-5881
▁abandonó	-5882
▁colocado	-5883
▁destruir	-5884
▁dirigido	-5885
▁entraban	-5886
▁estatura	-5887
▁extendía	-5888
▁formaban	-5889
▁guerrera	-5890
▁irritado	-5891
▁mantener	-5892
▁proclama	-5893
▁resuelto	-5894
▁retirado	-5895
▁asombrado	-5896
▁categoría	-5897
▁discusión	-5898
▁mostrando	-5899
▁problemas	-5900
▁puntillas	-5901
▁respondía	-5902
▁retirarse	-5903
▁sencillez	-5904
▁sintiendo	-5905
▁admiración	-5906
▁costumbres	-5907
▁documentos	-5908
▁principios	-5909
▁determinado	-5910
Su	-5911
ko	-5912
lé	-5913
Les	-5914
Non	-5915
col	-5916
dez	-5917
esa	-5918
eso	-5919
ezh	-5920
fri	-5921
ges	-5922
izo	-5923
moi	-5924
orá	-5925
une	-5926
yen	-5927
Sólo	-5928
Vete	-5929
abro	-5930
ezco	-5931
quél	-5932
tase	-5933
▁Nie	-5934
▁Olm	-5935
▁Res	-5936
▁ave	-5937
▁imi	-5938
▁inn	-5939
▁mun	-5940
▁rió	-5941
▁sig	-5942
▁sim	-5943
▁súb	-5944
▁súp	-5945
▁tar	-5946
▁tou	-5947
▁ése	-5948
Tengo	-5949
bamos	-5950
decer	-5951
ensas	-5952
guina	-5953
iosas	-5954
iosos	-5955
orádo	-5956
queza	-5957
sando	-5958
tuosa	-5959
vicor	-5960
ñando	-5961
ónezh	-5962
▁Escu	-5963
▁Este	-5964
▁Mack	-5965
▁Vous	-5966
▁anal	-5967
▁anti	-5968
▁astu	-5969
▁auda	-5970
▁base	-5971
▁cant	-5972
▁cuál	-5973
▁exal	-5974
▁fren	-5975
▁gent	-5976
▁gros	-5977
▁hago	-5978
▁imbé	-5979
▁imág	-5980
▁novi	-5981
▁patr	-5982
▁piso	-5983
▁quel	-5984
▁quem	-5985
▁suel	-5986
▁test	-5987
▁tocó	-5988
▁tumb	-5989
▁vaso	-5990
Cuando	-5991
riendo	-5992
tables	-5993
▁Hacia	-5994
▁Hacía	-5995
▁barro	-5996
▁batín	-5997
▁celeb	-5998
▁cogió	-5999
▁doble	-6000
▁estru	-6001
▁estup	-6002
▁fasti	-6003
▁finca	-6004
▁fusta	-6005
▁gotas	-6006
▁hojas	-6007
▁labor	-6008
▁maman	-6009
▁manda	-6010
▁polvo	-6011
▁presa	-6012
▁sirvi	-6013
▁subir	-6014
▁vemos	-6015
iedades	-6016
itación	-6017
ramente	-6018
usiones	-6019
▁Niemen	-6020
▁Viazma	-6021
▁actuar	-6022
▁alfomb	-6023
▁aparte	-6024
▁bigote	-6025
▁cañona	-6026
▁decisi	-6027
▁deudas	-6028
▁enviar	-6029
▁genial	-6030
▁instin	-6031
▁libres	-6032
▁ligero	-6033
▁mangas	-6034
▁menudo	-6035
▁negras	-6036
▁orejas	-6037
▁palide	-6038
▁penosa	-6039
▁prefer	-6040
▁profes	-6041
▁quiera	-6042
▁repuso	-6043
▁sobres	-6044
▁sonros	-6045
▁sosten	-6046
▁tendrá	-6047
▁veinti	-6048
riéndose	-6049
vicordio	-6050
▁cerrado	-6051
▁encogió	-6052
▁intentó	-6053
▁mandado	-6054
▁maravil	-6055
▁mejilla	-6056
▁propuso	-6057
▁quieren	-6058
▁reparar	-6059
▁repetir	-6060
▁secreto	-6061
orádovich	-6062
▁Ivánovna	-6063
▁Vorónezh	-6064
▁abedules	-6065
▁acciones	-6066
▁alegrías	-6067
▁arreglar	-6068
▁bolsillo	-6069
▁caminaba	-6070
▁confirmó	-6071
▁cuaderno	-6072
▁detenido	-6073
▁dirigían	-6074
▁discutir	-6075
▁espuelas	-6076
▁estudiar	-6077
▁imágenes	-6078
▁interrog	-6079
▁molestar	-6080
▁precipit	-6081
▁realizar	-6082
▁rechazar	-6083
▁rodearon	-6084
▁sensible	-6085
▁sentirse	-6086
▁teniente	-6087
▁trataban	-6088
▁volverse	-6089
▁comentaba	-6090
▁conocidos	-6091
▁empezaron	-6092
▁fusilería	-6093
▁iluminada	-6094
▁impresion	-6095
▁maniobras	-6096
▁preceptor	-6097
▁provincia	-6098
▁proyectil	-6099
▁reflejaba	-6100
▁convicción	-6101
▁participar	-6102
▁posesiones	-6103
▁respuestas	-6104
▁sorprendió	-6105
▁clavicordio	-6106
▁Milorádovich	-6107
▁consecuencia	-6108
Ea	-6109
Os	-6110
éc	-6111
Mar	-6112
así	-6113
egr	-6114
egu	-6115
gel	-6116
ivo	-6117
sez	-6118
tem	-6119
tmo	-6120
val	-6121
▁ág	-6122
Como	-6123
anía	-6124
erna	-6125
joso	-6126
leta	-6127
neur	-6128
quía	-6129
tzen	-6130
ínov	-6131
▁Cre	-6132
▁Hoy	-6133
▁lam	-6134
▁oso	-6135
▁pis	-6136
▁vit	-6137
▁été	-6138
Estás	-6139
aleco	-6140
allas	-6141
diese	-6142
ienes	-6143
inter	-6144
intió	-6145
jados	-6146
menos	-6147
quite	-6148
según	-6149
ulgar	-6150
ustos	-6151
▁Está	-6152
▁Gran	-6153
▁apla	-6154
▁apos	-6155
▁apun	-6156
▁avez	-6157
▁chis	-6158
▁cola	-6159
▁colm	-6160
▁copa	-6161
▁cous	-6162
▁desb	-6163
▁dich	-6164
▁inop	-6165
▁plum	-6166
▁reme	-6167
▁temi	-6168
ficios	-6169
▁Scher	-6170
▁Según	-6171
▁besar	-6172
▁chamb	-6173
▁cordi	-6174
▁cruzó	-6175
▁deben	-6176
▁deses	-6177
▁difun	-6178
▁dudar	-6179
▁dudas	-6180
▁dueña	-6181
▁dócil	-6182
▁espon	-6183
▁grand	-6184
▁huían	-6185
▁incre	-6186
▁insol	-6187
▁luces	-6188
▁persu	-6189
▁predi	-6190
▁rebas	-6191
▁recob	-6192
▁recur	-6193
▁revel	-6194
▁ritmo	-6195
▁salto	-6196
▁solos	-6197
▁tropa	-6198
▁unión	-6199
amballe	-6200
▁acento	-6201
▁adivin	-6202
▁atento	-6203
▁cadete	-6204
▁despla	-6205
▁escena	-6206
▁espole	-6207
▁europe	-6208
▁indicó	-6209
▁invitó	-6210
▁levita	-6211
▁pareja	-6212
▁pasada	-6213
▁perdió	-6214
▁probar	-6215
▁rasgos	-6216
▁ruidos	-6217
▁sombra	-6218
▁sonora	-6219
▁traido	-6220
▁unirse	-6221
▁vuelve	-6222
entarios	-6223
peración	-6224
▁amarill	-6225
▁animada	-6226
▁bajando	-6227
▁balance	-6228
▁cabello	-6229
▁caminos	-6230
▁chaleco	-6231
▁confusa	-6232
▁dejarlo	-6233
▁empresa	-6234
▁especie	-6235
▁estable	-6236
▁estudio	-6237
▁fiestas	-6238
▁impedía	-6239
▁inmensa	-6240
▁instrum	-6241
▁logrado	-6242
▁novedad	-6243
▁ofreció	-6244
▁pasando	-6245
▁perdida	-6246
▁relatos	-6247
▁sucedió	-6248
▁acercado	-6249
▁alegraba	-6250
▁amanecer	-6251
▁antiguos	-6252
▁banderas	-6253
▁borracho	-6254
▁castigar	-6255
▁combatir	-6256
▁conducía	-6257
▁confiado	-6258
▁cortesía	-6259
▁dependía	-6260
▁deseando	-6261
▁disponía	-6262
▁distribu	-6263
▁enérgico	-6264
▁frialdad	-6265
▁gustaría	-6266
▁proceder	-6267
▁producía	-6268
▁prometió	-6269
▁reunirse	-6270
▁separado	-6271
▁sorpresa	-6272
▁tontería	-6273
▁transcur	-6274
▁violento	-6275
▁aparecían	-6276
▁conseguía	-6277
▁consiguió	-6278
▁corrieron	-6279
▁distintas	-6280
▁enamorada	-6281
▁enamorado	-6282
▁fenómenos	-6283
▁intentaba	-6284
▁interroga	-6285
▁invisible	-6286
▁mostraban	-6287
▁mostrarse	-6288
▁observaba	-6289
▁olvidando	-6290
▁rechazado	-6291
▁resplando	-6292
▁espiritual	-6293
▁inspeccion	-6294
▁institutri	-6295
▁mercaderes	-6296
▁recompensa	-6297
▁recordando	-6298
▁voluntades	-6299
▁ocupaciones	-6300
▁inclinándose	-6301
▁insignificante	-6302
Ay	-6303
Ch	-6304
Re	-6305
nn	-6306
oc	-6307
—;	-6308
Nik	-6309
gno	-6310
ins	-6311
ité	-6312
ler	-6313
mov	-6314
orb	-6315
rey	-6316
teo	-6317
uno	-6318
use	-6319
▁Ad	-6320
▁Er	-6321
▁Fe	-6322
▁Ki	-6323
▁Ko	-6324
▁Pa	-6325
▁Sé	-6326
▁fl	-6327
▁—“	-6328
Hola	-6329
Sabe	-6330
angr	-6331
arán	-6332
cara	-6333
dito	-6334
enka	-6335
irlo	-6336
omía	-6337
stas	-6338
stru	-6339
tigo	-6340
usha	-6341
▁Iba	-6342
▁Ing	-6343
▁Tur	-6344
▁ape	-6345
▁caj	-6346
▁crí	-6347
▁err	-6348
▁hue	-6349
▁nov	-6350
▁zor	-6351
...”,	-6352
Señor	-6353
Tiene	-6354
ciope	-6355
derez	-6356
feras	-6357
garse	-6358
ierte	-6359
kovna	-6360
ovnit	-6361
raron	-6362
terse	-6363
tillo	-6364
uraba	-6365
▁Dieu	-6366
▁Enrí	-6367
▁Kará	-6368
▁brus	-6369
▁cere	-6370
▁cuan	-6371
▁econ	-6372
▁gala	-6373
▁guía	-6374
▁hund	-6375
▁mati	-6376
▁peso	-6377
▁ridí	-6378
▁seco	-6379
▁sedu	-6380
atiche	-6381
dentes	-6382
dóneme	-6383
quilla	-6384
éndole	-6385
▁Orlov	-6386
▁Señor	-6387
▁Tolly	-6388
▁Usted	-6389
▁aplas	-6390
▁carac	-6391
▁cenar	-6392
▁civil	-6393
▁coger	-6394
▁digas	-6395
▁disim	-6396
▁echar	-6397
▁encer	-6398
▁entra	-6399
▁grato	-6400
▁indud	-6401
▁invad	-6402
▁junio	-6403
▁juven	-6404
▁lloró	-6405
▁modes	-6406
▁plato	-6407
▁pocas	-6408
▁quede	-6409
▁refor	-6410
▁reyes	-6411
▁roble	-6412
▁tardó	-6413
▁vieje	-6414
▁vigil	-6415
cilidad	-6416
ización	-6417
laterra	-6418
uestros	-6419
▁Alteza	-6420
▁Volvió	-6421
▁afable	-6422
▁anoche	-6423
▁apreci	-6424
▁apretu	-6425
▁bonita	-6426
▁cañone	-6427
▁claros	-6428
▁colocó	-6429
▁conoci	-6430
▁dignat	-6431
▁entien	-6432
▁extrañ	-6433
▁golpes	-6434
▁gruesa	-6435
▁hierba	-6436
▁intele	-6437
▁juicio	-6438
▁lament	-6439
▁llegan	-6440
▁luchar	-6441
▁madera	-6442
▁mandar	-6443
▁neglig	-6444
▁nobles	-6445
▁oculto	-6446
▁oscura	-6447
▁pasear	-6448
▁pecado	-6449
▁peregr	-6450
▁plumas	-6451
▁propie	-6452
▁proteg	-6453
▁separó	-6454
▁título	-6455
▁visera	-6456
diéndose	-6457
ovnitsin	-6458
quitecto	-6459
▁absurdo	-6460
▁aseguró	-6461
▁centine	-6462
▁cientos	-6463
▁ciertos	-6464
▁contigo	-6465
▁decidir	-6466
▁delgada	-6467
▁débiles	-6468
▁enemiga	-6469
▁errores	-6470
▁esferas	-6471
▁expresó	-6472
▁guardar	-6473
▁guerril	-6474
▁hacerle	-6475
▁indefin	-6476
▁lacayos	-6477
▁llamada	-6478
▁medidas	-6479
▁oración	-6480
▁portero	-6481
▁prosegu	-6482
▁riendas	-6483
▁salones	-6484
▁timidez	-6485
▁veladas	-6486
▁Ramballe	-6487
▁adelantó	-6488
▁almohada	-6489
▁animados	-6490
▁conjunto	-6491
▁desconfi	-6492
▁deseaban	-6493
▁dominaba	-6494
▁embarazo	-6495
▁estanque	-6496
▁estrechó	-6497
▁iglesias	-6498
▁imperial	-6499
▁insistió	-6500
▁invasión	-6501
▁misterio	-6502
▁olvidaba	-6503
▁recorrió	-6504
▁seriedad	-6505
▁sobresal	-6506
▁temblaba	-6507
▁trabajos	-6508
▁Enríkovna	-6509
▁Karáguina	-6510
▁caballeri	-6511
▁caballero	-6512
▁conservar	-6513
▁contenido	-6514
▁conversar	-6515
▁emprender	-6516
▁encendido	-6517
▁entrevist	-6518
▁excepción	-6519
▁mirándola	-6520
▁miserable	-6521
▁presentes	-6522
▁realmente	-6523
▁Inglaterra	-6524
▁contemplar	-6525
▁cortesanos	-6526
▁cuestiones	-6527
▁despedirse	-6528
▁doscientos	-6529
▁habituales	-6530
▁inesperada	-6531
▁ocurriendo	-6532
▁presentado	-6533
▁provincias	-6534
▁resplandor	-6535
▁suspirando	-6536
▁Konovnitsin	-6537
▁comprendían	-6538
▁concentrado	-6539
▁gobernantes	-6540
▁impaciencia	-6541
▁invernadero	-6542
▁provisiones	-6543
▁visiblemente	-6544
▁cariñosamente	-6545
▁comprendiendo	-6546
▁consecuencias	-6547
▁contradicción	-6548
▁razonamientos	-6549
Vo	-6550
él	-6551
Par	-6552
ner	-6553
pro	-6554
tez	-6555
urg	-6556
ñal	-6557
▁Sa	-6558
...!	-6559
bres	-6560
cili	-6561
drán	-6562
eaba	-6563
erai	-6564
esen	-6565
esta	-6566
ezca	-6567
pira	-6568
rano	-6569
tier	-6570
zosa	-6571
ákov	-6572
écdo	-6573
ísmo	-6574
▁Koz	-6575
▁Nos	-6576
▁Pra	-6577
▁Pue	-6578
▁Ste	-6579
▁Vio	-6580
▁adm	-6581
▁emi	-6582
▁fes	-6583
▁ges	-6584
▁gir	-6585
▁glo	-6586
▁leg	-6587
▁lla	-6588
▁lui	-6589
▁tin	-6590
▁zap	-6591
?...—	-6592
Basta	-6593
ctado	-6594
ezina	-6595
itski	-6596
licas	-6597
orito	-6598
paban	-6599
terio	-6600
vanes	-6601
▁Bien	-6602
▁Esto	-6603
▁acre	-6604
▁aloj	-6605
▁arch	-6606
▁argu	-6607
▁ater	-6608
▁calm	-6609
▁cens	-6610
▁chal	-6611
▁dada	-6612
▁leyó	-6613
▁mech	-6614
▁plen	-6615
▁reve	-6616
▁trib	-6617
▁unió	-6618
▁vive	-6619
anilla	-6620
cantes	-6621
lovski	-6622
mítame	-6623
teando	-6624
▁Ambos	-6625
▁Catal	-6626
▁Imper	-6627
▁Kiril	-6628
▁Nikól	-6629
▁adorn	-6630
▁canto	-6631
▁compa	-6632
▁criti	-6633
▁desvi	-6634
▁encol	-6635
▁escla	-6636
▁exces	-6637
▁falda	-6638
▁falsa	-6639
▁falso	-6640
▁fango	-6641
▁femme	-6642
▁gorra	-6643
▁guapa	-6644
▁hijas	-6645
▁humar	-6646
▁inexp	-6647
▁morib	-6648
▁notas	-6649
▁obras	-6650
▁persi	-6651
▁polac	-6652
▁poste	-6653
▁refug	-6654
▁renov	-6655
▁tante	-6656
▁torpe	-6657
▁trigo	-6658
▁vacío	-6659
▁voilà	-6660
mamente	-6661
osotras	-6662
ándolos	-6663
▁anécdo	-6664
▁autori	-6665
▁avance	-6666
▁compla	-6667
▁conceb	-6668
▁contin	-6669
▁convir	-6670
▁cuidad	-6671
▁desemb	-6672
▁enfant	-6673
▁entera	-6674
▁estará	-6675
▁exigía	-6676
▁expuso	-6677
▁febril	-6678
▁fiebre	-6679
▁fresco	-6680
▁ganado	-6681
▁insens	-6682
▁intrig	-6683
▁jamais	-6684
▁jinete	-6685
▁oblicu	-6686
▁patrió	-6687
▁patrul	-6688
▁pesado	-6689
▁posada	-6690
▁poseía	-6691
▁presid	-6692
▁prisas	-6693
▁proxim	-6694
▁quedan	-6695
▁realiz	-6696
▁rector	-6697
▁rogaba	-6698
▁serían	-6699
▁sufría	-6700
▁tocaba	-6701
▁verlos	-6702
▁versos	-6703
▁vivían	-6704
itamente	-6705
▁Catiche	-6706
▁Pratzen	-6707
▁Recordó	-6708
▁apoyado	-6709
▁asistir	-6710
▁capotes	-6711
▁coberti	-6712
▁comedor	-6713
▁comprom	-6714
▁desabro	-6715
▁detenía	-6716
▁difunto	-6717
▁dándose	-6718
▁enderez	-6719
▁enormes	-6720
▁envidia	-6721
▁exclusi	-6722
▁iguales	-6723
▁indiscu	-6724
▁intensa	-6725
▁mirarla	-6726
▁moscovi	-6727
▁peinado	-6728
▁permite	-6729
▁redonda	-6730
▁sesenta	-6731
▁sombras	-6732
▁Berezina	-6733
▁Catalina	-6734
▁alfombra	-6735
▁antiguas	-6736
▁arbitrar	-6737
▁caracter	-6738
▁cerrando	-6739
▁colérico	-6740
▁comprome	-6741
▁conceder	-6742
▁consuelo	-6743
▁creyendo	-6744
▁delgados	-6745
▁extraños	-6746
▁habiendo	-6747
▁indeciso	-6748
▁invitado	-6749
▁llevando	-6750
▁mediante	-6751
▁mercader	-6752
▁pasiones	-6753
▁pensaban	-6754
▁recorrer	-6755
▁separaba	-6756
▁trabajar	-6757
▁ventajas	-6758
▁Kozlovski	-6759
▁apartando	-6760
▁atardecer	-6761
▁atractivo	-6762
▁bienestar	-6763
▁bondadoso	-6764
▁colocaron	-6765
▁comunicar	-6766
▁conocemos	-6767
▁convencer	-6768
▁culpables	-6769
▁diferente	-6770
▁entregado	-6771
▁formación	-6772
▁intelectu	-6773
▁manifestó	-6774
▁objetivos	-6775
▁observado	-6776
▁orgulloso	-6777
▁padrecito	-6778
▁pensativa	-6779
▁presuroso	-6780
▁prometida	-6781
▁provocado	-6782
▁renunciar	-6783
▁reproches	-6784
▁salvación	-6785
▁servicios	-6786
▁severidad	-6787
▁señoritas	-6788
▁universal	-6789
▁anteriores	-6790
▁apoyándose	-6791
▁hospitales	-6792
▁misterioso	-6793
▁mutuamente	-6794
▁necesarias	-6795
▁preocupado	-6796
▁testamento	-6797
▁conveniente	-6798
▁historiador	-6799
▁pesadamente	-6800
▁acostumbrada	-6801
▁encogiéndose	-6802
▁desesperación	-6803
▁participación	-6804
▁constantemente	-6805
Sé	-6806
su	-6807
Ahí	-6808
Tal	-6809
amo	-6810
cán	-6811
don	-6812
fel	-6813
iez	-6814
mis	-6815
ses	-6816
tse	-6817
éle	-6818
ére	-6819
ést	-6820
íbu	-6821
▁Et	-6822
▁Ge	-6823
▁Va	-6824
▁nu	-6825
▁ré	-6826
Mira	-6827
acer	-6828
arai	-6829
chan	-6830
delo	-6831
dola	-6832
entu	-6833
ilas	-6834
imml	-6835
ique	-6836
iría	-6837
melo	-6838
raje	-6839
taño	-6840
veje	-6841
árse	-6842
▁Aun	-6843
▁Aún	-6844
▁Cas	-6845
▁alb	-6846
▁avi	-6847
▁buf	-6848
▁diá	-6849
▁fum	-6850
▁roc	-6851
▁ésa	-6852
Quier	-6853
adora	-6854
ciles	-6855
inoso	-6856
orial	-6857
tador	-6858
tiera	-6859
▁Algo	-6860
▁Anis	-6861
▁Aquí	-6862
▁Kiev	-6863
▁alis	-6864
▁avec	-6865
▁baga	-6866
▁club	-6867
▁duró	-6868
▁frac	-6869
▁hume	-6870
▁inci	-6871
▁irse	-6872
▁pata	-6873
▁pide	-6874
▁puro	-6875
▁quie	-6876
▁rele	-6877
▁rosa	-6878
▁sont	-6879
▁toca	-6880
▁toma	-6881
Porque	-6882
ientos	-6883
immler	-6884
▁Morel	-6885
▁Tengo	-6886
▁Vasíl	-6887
▁avent	-6888
▁bajar	-6889
▁carga	-6890
▁corta	-6891
▁corto	-6892
▁dites	-6893
▁hered	-6894
▁inces	-6895
▁insul	-6896
▁melan	-6897
▁notar	-6898
▁pasqu	-6899
▁pelli	-6900
▁perra	-6901
▁posee	-6902
▁quizá	-6903
▁rayos	-6904
▁reojo	-6905
▁rever	-6906
▁subía	-6907
▁sucia	-6908
▁supli	-6909
▁unido	-6910
▁vacía	-6911
▁zorro	-6912
▁éstos	-6913
ciplina	-6914
erables	-6915
▁Varias	-6916
▁acudir	-6917
▁animos	-6918
▁ayudar	-6919
▁convul	-6920
▁cruzar	-6921
▁desenv	-6922
▁divino	-6923
▁enveje	-6924
▁esenci	-6925
▁espero	-6926
▁ilumin	-6927
▁locura	-6928
▁límite	-6929
▁merode	-6930
▁mérito	-6931
▁ofensa	-6932
▁pasara	-6933
▁pasión	-6934
▁plante	-6935
▁recibe	-6936
▁respal	-6937
▁sujeto	-6938
▁sujetó	-6939
▁vestir	-6940
teniente	-6941
▁Dimmler	-6942
▁Llevaba	-6943
▁antigua	-6944
▁anunció	-6945
▁asombró	-6946
▁cartera	-6947
▁cañoneo	-6948
▁cultura	-6949
▁deberes	-6950
▁decirse	-6951
▁divanes	-6952
▁estalló	-6953
▁granada	-6954
▁honores	-6955
▁imbécil	-6956
▁irónica	-6957
▁juvenil	-6958
▁llenaba	-6959
▁mandíbu	-6960
▁marchas	-6961
▁masones	-6962
▁montaba	-6963
▁pedirle	-6964
▁persuad	-6965
▁pruebas	-6966
▁regresó	-6967
▁reunían	-6968
▁seguros	-6969
▁sendero	-6970
▁situado	-6971
▁sonaron	-6972
▁sucesos	-6973
▁supremo	-6974
▁susurro	-6975
▁tiendas	-6976
▁tierras	-6977
▁vestida	-6978
▁viajero	-6979
▁visitas	-6980
▁agitando	-6981
▁aparecer	-6982
▁atravesó	-6983
▁callaron	-6984
▁colorado	-6985
▁contaban	-6986
▁convoyes	-6987
▁curiosos	-6988
▁dirigida	-6989
▁enfermos	-6990
▁envuelto	-6991
▁examinar	-6992
▁favorito	-6993
▁hubiesen	-6994
▁interven	-6995
▁librarse	-6996
▁limitaba	-6997
▁obligaba	-6998
▁portalón	-6999
▁práctica	-7000
▁sabiendo	-7001
▁temprano	-7002
▁valiente	-7003
▁aseguraba	-7004
▁atravesar	-7005
▁bondadosa	-7006
▁cañonazos	-7007
▁consistía	-7008
▁decírselo	-7009
▁discutían	-7010
▁doncellas	-7011
▁encargado	-7012
▁entendido	-7013
▁estrellas	-7014
▁fingiendo	-7015
▁frecuente	-7016
▁magnífico	-7017
▁numerosas	-7018
▁ocupación	-7019
▁ordinario	-7020
▁preparaba	-7021
▁recorrido	-7022
▁rezagados	-7023
▁serenidad	-7024
▁sujetando	-7025
▁transform	-7026
▁Perónskaia	-7027
▁abandonada	-7028
▁amenazador	-7029
▁artilleros	-7030
▁asistentes	-7031
▁caballeros	-7032
▁compromiso	-7033
▁conclusión	-7034
▁corpulento	-7035
▁espléndida	-7036
▁estremeció	-7037
▁hostilidad	-7038
▁invitación	-7039
▁misteriosa	-7040
▁preguntado	-7041
▁repitiendo	-7042
▁resultados	-7043
▁solemnidad	-7044
▁vacilación	-7045
▁discusiones	-7046
▁encantadora	-7047
▁ligeramente	-7048
▁preguntando	-7049
▁reflexionar	-7050
▁simplemente	-7051
▁sintiéndose	-7052
▁comprenderlo	-7053
▁consideraban	-7054
▁cumplimiento	-7055
▁determinadas	-7056
▁funcionarios	-7057
▁inconsciente	-7058
▁refiriéndose	-7059
▁reconocimiento	-7060
▁apasionadamente	-7061
II	-7062
ck	-7063
ví	-7064
ñe	-7065
Deb	-7066
Hoy	-7067
Men	-7068
Tra	-7069
Voy	-7070
arm	-7071
dol	-7072
gro	-7073
iga	-7074
imí	-7075
ing	-7076
kin	-7077
Hace	-7078
aben	-7079
fren	-7080
gran	-7081
iber	-7082
inco	-7083
ubio	-7084
ular	-7085
ámon	-7086
▁Bol	-7087
▁Cal	-7088
▁Dio	-7089
▁Ost	-7090
▁Sol	-7091
▁and	-7092
▁bri	-7093
▁chi	-7094
▁fac	-7095
▁fru	-7096
▁gab	-7097
▁hin	-7098
▁mág	-7099
▁nom	-7100
▁rel	-7101
▁tes	-7102
Dicen	-7103
Hasta	-7104
Venga	-7105
adura	-7106
ancio	-7107
choen	-7108
cilla	-7109
erman	-7110
gamos	-7111
grado	-7112
guada	-7113
inete	-7114
irían	-7115
onton	-7116
quién	-7117
raspe	-7118
sario	-7119
tamos	-7120
teros	-7121
ticas	-7122
umbra	-7123
ñores	-7124
▁Ante	-7125
▁Bajo	-7126
▁Karp	-7127
▁Kirí	-7128
▁Kolo	-7129
▁Llam	-7130
▁Otra	-7131
▁Tils	-7132
▁Vlad	-7133
▁acal	-7134
▁asal	-7135
▁bata	-7136
▁bell	-7137
▁clam	-7138
▁codo	-7139
▁comb	-7140
▁céle	-7141
▁deri	-7142
▁desh	-7143
▁devo	-7144
▁duer	-7145
▁fija	-7146
▁fila	-7147
▁fina	-7148
▁mapa	-7149
▁mund	-7150
▁míos	-7151
▁nave	-7152
▁paja	-7153
▁palm	-7154
▁poca	-7155
▁seca	-7156
▁tela	-7157
▁trae	-7158
▁voir	-7159
aderos	-7160
ciséis	-7161
▁Esper	-7162
▁bande	-7163
▁bando	-7164
▁barba	-7165
▁costa	-7166
▁cuero	-7167
▁deman	-7168
▁desas	-7169
▁diera	-7170
▁dique	-7171
▁doctr	-7172
▁empla	-7173
▁estat	-7174
▁estri	-7175
▁fiera	-7176
▁ganas	-7177
▁haces	-7178
▁halla	-7179
▁hecha	-7180
▁icono	-7181
▁inven	-7182
▁jugue	-7183
▁llenó	-7184
▁mueve	-7185
▁oídos	-7186
▁oírlo	-7187
▁perse	-7188
▁pobla	-7189
▁prado	-7190
▁reían	-7191
▁salon	-7192
▁savez	-7193
▁tenta	-7194
▁terra	-7195
▁traer	-7196
▁vacil	-7197
▁vigor	-7198
▁ángel	-7199
lamente	-7200
▁Schoen	-7201
▁acentu	-7202
▁agregó	-7203
▁amplia	-7204
▁amplio	-7205
▁atraía	-7206
▁avanza	-7207
▁captur	-7208
▁cesado	-7209
▁dedicó	-7210
▁dueños	-7211
▁enfado	-7212
▁estrib	-7213
▁fatiga	-7214
▁flores	-7215
▁gallar	-7216
▁gentil	-7217
▁golpeó	-7218
▁ingres	-7219
▁limpio	-7220
▁llegue	-7221
▁origen	-7222
▁parada	-7223
▁puesta	-7224
▁reclut	-7225
▁resuel	-7226
▁sables	-7227
▁suplic	-7228
▁tierno	-7229
▁troika	-7230
▁vecino	-7231
▁vergon	-7232
▁vienen	-7233
▁vulgar	-7234
alidades	-7235
▁Danubio	-7236
▁Nuestro	-7237
▁Tilsitt	-7238
▁Turquía	-7239
▁acomodó	-7240
▁acudido	-7241
▁alcanzó	-7242
▁amonton	-7243
▁apoderó	-7244
▁archidu	-7245
▁aseguro	-7246
▁castigo	-7247
▁compade	-7248
▁decenas	-7249
▁directa	-7250
▁dispers	-7251
▁domingo	-7252
▁elegido	-7253
▁ensangr	-7254
▁esquina	-7255
▁exponía	-7256
▁figuras	-7257
▁forraje	-7258
▁imaginó	-7259
▁lanzaba	-7260
▁lloraba	-7261
▁matarlo	-7262
▁paredes	-7263
▁paseaba	-7264
▁progres	-7265
▁quieras	-7266
▁regorde	-7267
▁reinado	-7268
▁rodilla	-7269
▁sabemos	-7270
▁sincero	-7271
▁sonidos	-7272
▁vaguada	-7273
▁zapatos	-7274
▁acompañó	-7275
▁advertía	-7276
▁antesala	-7277
▁cariñoso	-7278
▁carraspe	-7279
▁comunicó	-7280
▁continuo	-7281
▁contribu	-7282
▁crueldad	-7283
▁delicada	-7284
▁entrando	-7285
▁existían	-7286
▁gabinete	-7287
▁idéntica	-7288
▁infinita	-7289
▁llamados	-7290
▁llegaría	-7291
▁llenaban	-7292
▁napoleón	-7293
▁nombrado	-7294
▁previsto	-7295
▁próximos	-7296
▁sumisión	-7297
▁Recordaba	-7298
▁cansancio	-7299
▁cobertizo	-7300
▁cubiertos	-7301
▁dieciséis	-7302
▁divinidad	-7303
▁enfermero	-7304
▁estruendo	-7305
▁habilidad	-7306
▁inclinado	-7307
▁incorporó	-7308
▁inspiraba	-7309
▁oraciones	-7310
▁orgullosa	-7311
▁población	-7312
▁Kirílovich	-7313
▁abandonaba	-7314
▁apasionado	-7315
▁contestaba	-7316
▁convertido	-7317
▁despertaba	-7318
▁dirigieron	-7319
▁dócilmente	-7320
▁firmemente	-7321
▁frecuentes	-7322
▁irritación	-7323
▁maravillos	-7324
▁moscovitas	-7325
▁obligación	-7326
▁pertenecía	-7327
▁presentaba	-7328
▁propósitos	-7329
▁reflexionó	-7330
▁suficiente	-7331
▁abandonando	-7332
▁amarillento	-7333
▁aparecieron	-7334
▁caballerizo	-7335
▁convencidos	-7336
▁encontraron	-7337
▁impresiones	-7338
▁permanecido	-7339
▁preguntarle	-7340
▁tristemente	-7341
▁contemplando	-7342
▁diplomáticos	-7343
▁indiscutible	-7344
▁Semiónovskoie	-7345
▁imperceptible	-7346
▁observaciones	-7347
▁permanecieron	-7348
▁sencillamente	-7349
Ja	-7350
Pr	-7351
Vi	-7352
ms	-7353
uf	-7354
Ver	-7355
amp	-7356
dis	-7357
emp	-7358
eos	-7359
iss	-7360
neg	-7361
nik	-7362
ont	-7363
rip	-7364
áce	-7365
▁Am	-7366
▁Mé	-7367
adic	-7368
anes	-7369
cuer	-7370
dora	-7371
feld	-7372
guen	-7373
ició	-7374
imas	-7375
ites	-7376
mant	-7377
mich	-7378
naim	-7379
todo	-7380
uela	-7381
unau	-7382
▁Ahí	-7383
▁Arm	-7384
▁Bra	-7385
▁Fri	-7386
▁Mal	-7387
▁api	-7388
▁azo	-7389
▁baú	-7390
▁fui	-7391
▁mín	-7392
▁tib	-7393
Adiós	-7394
cedor	-7395
cisco	-7396
citur	-7397
derse	-7398
ditos	-7399
elina	-7400
entro	-7401
erosa	-7402
ierra	-7403
jovit	-7404
nette	-7405
parse	-7406
reros	-7407
thier	-7408
úkova	-7409
▁Acab	-7410
▁Auer	-7411
▁Magn	-7412
▁Meli	-7413
▁Orel	-7414
▁Vive	-7415
▁abar	-7416
▁acor	-7417
▁apli	-7418
▁bala	-7419
▁cabe	-7420
▁chir	-7421
▁deli	-7422
▁doce	-7423
▁expe	-7424
▁gana	-7425
▁hará	-7426
▁jade	-7427
▁pais	-7428
▁rara	-7429
▁reda	-7430
▁tapi	-7431
▁taza	-7432
▁torm	-7433
▁vehí	-7434
▁verá	-7435
atorio	-7436
chados	-7437
cionar	-7438
cordia	-7439
graben	-7440
iduría	-7441
iembre	-7442
ievski	-7443
inosos	-7444
olucci	-7445
quilib	-7446
tarios	-7447
tralla	-7448
ulidad	-7449
vision	-7450
éramos	-7451
▁Comen	-7452
▁Fiódo	-7453
▁Krems	-7454
▁Paris	-7455
▁Yákov	-7456
▁Znaim	-7457
▁agitó	-7458
▁aquél	-7459
▁ardor	-7460
▁ascen	-7461
▁bajos	-7462
▁buscó	-7463
▁capri	-7464
▁carca	-7465
▁emper	-7466
▁encam	-7467
▁escar	-7468
▁exter	-7469
▁flaco	-7470
▁innum	-7471
▁lison	-7472
▁lista	-7473
▁marco	-7474
▁menes	-7475
▁mesas	-7476
▁monas	-7477
▁orque	-7478
▁parar	-7479
▁petit	-7480
▁pieza	-7481
▁pájar	-7482
▁recom	-7483
▁repul	-7484
▁rezar	-7485
▁rojas	-7486
▁ruina	-7487
▁sufre	-7488
▁susto	-7489
▁testi	-7490
▁tocar	-7491
▁verte	-7492
▁verás	-7493
▁vidas	-7494
▁vital	-7495
▁volar	-7496
▁vícti	-7497
iéndolo	-7498
▁aceptó	-7499
▁acudió	-7500
▁acudía	-7501
▁agarró	-7502
▁alegro	-7503
▁arries	-7504
▁bebido	-7505
▁burlón	-7506
▁catedr	-7507
▁compon	-7508
▁concre	-7509
▁consul	-7510
▁cousin	-7511
▁creían	-7512
▁cumple	-7513
▁defini	-7514
▁demasi	-7515
▁derrib	-7516
▁desple	-7517
▁dijera	-7518
▁enfure	-7519
▁fincas	-7520
▁formas	-7521
▁fuente	-7522
▁gargan	-7523
▁gestos	-7524
▁guerre	-7525
▁habéis	-7526
▁húmeda	-7527
▁inicia	-7528
▁lastim	-7529
▁magnán	-7530
▁mancha	-7531
▁máximo	-7532
▁oficio	-7533
▁patrio	-7534
▁remedi	-7535
▁sitios	-7536
▁sonaba	-7537
▁tablas	-7538
▁Braunau	-7539
▁Gracias	-7540
▁Kolocha	-7541
▁aliados	-7542
▁apoyada	-7543
▁atrever	-7544
▁calzado	-7545
▁cansada	-7546
▁chiquil	-7547
▁colmena	-7548
▁comunic	-7549
▁conmove	-7550
▁dejaron	-7551
▁despren	-7552
▁doquier	-7553
▁espejos	-7554
▁formado	-7555
▁honrado	-7556
▁manchas	-7557
▁polacos	-7558
▁querría	-7559
▁reflejó	-7560
▁reinaba	-7561
▁remedio	-7562
▁reserva	-7563
▁reunión	-7564
▁rizados	-7565
▁saludar	-7566
▁suponer	-7567
▁súplica	-7568
▁tacitur	-7569
▁tomaban	-7570
▁traidor	-7571
▁tratara	-7572
▁triunfo	-7573
▁vanidad	-7574
▁zumbido	-7575
▁íntimos	-7576
cepciones	-7577
jovitínov	-7578
▁Berthier	-7579
▁Paolucci	-7580
▁Raievski	-7581
▁abriendo	-7582
▁agradaba	-7583
▁angustia	-7584
▁aparente	-7585
▁apartaba	-7586
▁arbustos	-7587
▁barbilla	-7588
▁billetes	-7589
▁cerrados	-7590
▁contando	-7591
▁edificio	-7592
▁elegante	-7593
▁empezado	-7594
▁espantos	-7595
▁estúpido	-7596
▁frontera	-7597
▁hablemos	-7598
▁hallarse	-7599
▁hubieron	-7600
▁humareda	-7601
▁igualdad	-7602
▁importar	-7603
▁indicado	-7604
▁inútiles	-7605
▁justicia	-7606
▁monarcas	-7607
▁montañas	-7608
▁muestras	-7609
▁nervioso	-7610
▁penumbra	-7611
▁pidiendo	-7612
▁preciosa	-7613
▁pérdidas	-7614
▁recogido	-7615
▁regresar	-7616
▁respirar	-7617
▁señorial	-7618
▁terciope	-7619
▁valeroso	-7620
▁visibles	-7621
▁Francisco	-7622
▁Meliúkova	-7623
▁agitación	-7624
▁aparición	-7625
▁apretando	-7626
▁asombraba	-7627
▁aumentaba	-7628
▁bayonetas	-7629
▁cadáveres	-7630
▁conocidas	-7631
▁destinado	-7632
▁estallido	-7633
▁exactitud	-7634
▁facilidad	-7635
▁incendios	-7636
▁inmóviles	-7637
▁mandíbula	-7638
▁noviembre	-7639
▁obstáculo	-7640
▁paciencia	-7641
▁preparada	-7642
▁represent	-7643
▁sabiduría	-7644
▁solitario	-7645
▁superfici	-7646
▁Comprendió	-7647
▁Entretanto	-7648
▁adversario	-7649
▁apariencia	-7650
▁aprovechar	-7651
▁aprovision	-7652
▁arquitecto	-7653
▁considerar	-7654
▁disciplina	-7655
▁distinguía	-7656
▁divertirse	-7657
▁estuvieran	-7658
▁intervenir	-7659
▁invencible	-7660
▁manifestar	-7661
▁moralmente	-7662
▁revolución	-7663
▁secretario	-7664
▁sollozando	-7665
▁sonrientes	-7666
▁suponiendo	-7667
▁autoridades	-7668
▁conversando	-7669
▁dependencia	-7670
▁desesperado	-7671
▁instrumento	-7672
▁intelectual	-7673
▁intenciones	-7674
▁intendencia	-7675
▁necesidades	-7676
▁últimamente	-7677
▁Boljovitínov	-7678
▁Schoengraben	-7679
▁continuación	-7680
▁enrojeciendo	-7681
▁incorporarse	-7682
▁independiente	-7683
▁infinitamente	-7684
▁proporcionaba	-7685
▁administración	-7686
▁preocupaciones	-7687
Et	-7688
ex	-7689
ho	-7690
Déj	-7691
Han	-7692
Más	-7693
ama	-7694
ced	-7695
eux	-7696
ial	-7697
rép	-7698
sky	-7699
tin	-7700
tín	-7701
ulg	-7702
urt	-7703
ñar	-7704
▁1)	-7705
▁Br	-7706
▁Sh	-7707
▁Vo	-7708
▁av	-7709
▁oh	-7710
Comp	-7711
Mire	-7712
Quel	-7713
Será	-7714
Toda	-7715
chub	-7716
cial	-7717
dada	-7718
difi	-7719
eler	-7720
guió	-7721
guéi	-7722
iaba	-7723
icol	-7724
igan	-7725
ista	-7726
iste	-7727
laro	-7728
orra	-7729
para	-7730
reza	-7731
roit	-7732
tora	-7733
urar	-7734
zara	-7735
▁Bes	-7736
▁Sok	-7737
▁Vir	-7738
▁aho	-7739
▁alm	-7740
▁alo	-7741
▁alu	-7742
▁cré	-7743
▁flo	-7744
▁rea	-7745
▁roi	-7746
▁sop	-7747
▁zín	-7748
...”.	-7749
Conde	-7750
Esper	-7751
anías	-7752
choss	-7753
ctora	-7754
deros	-7755
iegue	-7756
istas	-7757
izaba	-7758
menes	-7759
talia	-7760
tesse	-7761
uelos	-7762
umado	-7763
uncia	-7764
zones	-7765
▁Casi	-7766
▁Fili	-7767
▁Lang	-7768
▁Sire	-7769
▁abre	-7770
▁amie	-7771
▁avis	-7772
▁bene	-7773
▁brin	-7774
▁carn	-7775
▁case	-7776
▁cole	-7777
▁daré	-7778
▁deje	-7779
▁dici	-7780
▁elig	-7781
▁eman	-7782
▁flor	-7783
▁hori	-7784
▁huel	-7785
▁inta	-7786
▁miel	-7787
▁mire	-7788
▁misa	-7789
▁norm	-7790
▁oper	-7791
▁puño	-7792
▁remo	-7793
▁tech	-7794
▁vale	-7795
▁ágil	-7796
Pierre	-7797
aunque	-7798
chubéi	-7799
ctores	-7800
icolás	-7801
répito	-7802
tantes	-7803
tivier	-7804
áculos	-7805
▁Llamó	-7806
▁Santa	-7807
▁abier	-7808
▁agudo	-7809
▁ardía	-7810
▁arque	-7811
▁cantó	-7812
▁chacó	-7813
▁chose	-7814
▁cohib	-7815
▁comía	-7816
▁conna	-7817
▁conta	-7818
▁creen	-7819
▁encor	-7820
▁enton	-7821
▁envía	-7822
▁exige	-7823
▁globo	-7824
▁halló	-7825
▁hielo	-7826
▁intri	-7827
▁intér	-7828
▁manga	-7829
▁novia	-7830
▁ocupa	-7831
▁pensé	-7832
▁plano	-7833
▁podré	-7834
▁potro	-7835
▁raras	-7836
▁rocío	-7837
▁senil	-7838
▁serlo	-7839
▁sucio	-7840
▁terri	-7841
▁turno	-7842
▁zanja	-7843
Querido	-7844
Señores	-7845
iencias	-7846
▁Anisia	-7847
▁Inglés	-7848
▁Italia	-7849
▁Nikolá	-7850
▁Schoss	-7851
▁Termin	-7852
▁Virgen	-7853
▁abuelo	-7854
▁aceler	-7855
▁acomod	-7856
▁alegró	-7857
▁antaño	-7858
▁asombr	-7859
▁aspira	-7860
▁atenta	-7861
▁añadía	-7862
▁cascos	-7863
▁ciento	-7864
▁claras	-7865
▁comens	-7866
▁cubrió	-7867
▁echada	-7868
▁embrol	-7869
▁equipa	-7870
▁espect	-7871
▁estuve	-7872
▁eterno	-7873
▁famosa	-7874
▁frater	-7875
▁gozaba	-7876
▁graves	-7877
▁húmedo	-7878
▁llaman	-7879
▁lograr	-7880
▁lógica	-7881
▁mamita	-7882
▁merece	-7883
▁moment	-7884
▁moneda	-7885
▁nombra	-7886
▁ocultó	-7887
▁precio	-7888
▁puntas	-7889
▁repent	-7890
▁resonó	-7891
▁restos	-7892
▁sacado	-7893
▁saltar	-7894
▁sesión	-7895
▁suelen	-7896
▁tembló	-7897
▁torció	-7898
▁verdes	-7899
▁zíngar	-7900
▁útiles	-7901
chándose	-7902
dimiento	-7903
▁Alguien	-7904
▁Annette	-7905
▁Armfeld	-7906
▁Hablaba	-7907
▁Pensaba	-7908
▁Permane	-7909
▁alcance	-7910
▁anciana	-7911
▁audacia	-7912
▁autores	-7913
▁bandeja	-7914
▁buscado	-7915
▁butacas	-7916
▁camilla	-7917
▁carecía	-7918
▁causaba	-7919
▁cuadros	-7920
▁célebre	-7921
▁económi	-7922
▁ensorde	-7923
▁equilib	-7924
▁escrita	-7925
▁existen	-7926
▁explica	-7927
▁hacemos	-7928
▁horizon	-7929
▁iluminó	-7930
▁lejanía	-7931
▁mandaba	-7932
▁menores	-7933
▁objetar	-7934
▁obtener	-7935
▁ofrecer	-7936
▁piensan	-7937
▁pudiese	-7938
▁pálidos	-7939
▁refugio	-7940
▁saliera	-7941
▁salvado	-7942
▁sincera	-7943
▁sobrina	-7944
▁soledad	-7945
▁supiera	-7946
▁temible	-7947
▁tomaron	-7948
▁vuestra	-7949
▁vuestro	-7950
cisamente	-7951
nicamente	-7952
▁Langeron	-7953
▁Métivier	-7954
▁capturar	-7955
▁catedral	-7956
▁centenar	-7957
▁colorada	-7958
▁conducta	-7959
▁círculos	-7960
▁descalzo	-7961
▁doloroso	-7962
▁enfadada	-7963
▁enérgica	-7964
▁escogido	-7965
▁furgones	-7966
▁golpeaba	-7967
▁gravedad	-7968
▁llegados	-7969
▁llevarse	-7970
▁medicina	-7971
▁mediodía	-7972
▁menester	-7973
▁numeroso	-7974
▁oficinas	-7975
▁ofrecían	-7976
▁placeres	-7977
▁poniendo	-7978
▁posibles	-7979
▁recorría	-7980
▁respaldo	-7981
▁resuelta	-7982
▁secretos	-7983
▁transfer	-7984
ctivamente	-7985
▁aguardaba	-7986
▁alusiones	-7987
▁anochecer	-7988
▁apartarse	-7989
▁atractiva	-7990
▁avanzando	-7991
▁avanzaron	-7992
▁cercanías	-7993
▁conciliar	-7994
▁condenado	-7995
▁conducido	-7996
▁conocerlo	-7997
▁decidirse	-7998
▁diciembre	-7999
▁distintos	-8000
▁enganchar	-8001
▁explicaba	-8002
▁finalidad	-8003
▁huéspedes	-8004
▁iluminado	-8005
▁incesante	-8006
▁inclinaba	-8007
▁individuo	-8008
▁kilómetro	-8009
▁luminosos	-8010
▁moribundo	-8011
▁pareciera	-8012
▁parientes	-8013
▁pasquines	-8014
▁pendiente	-8015
▁repetidas	-8016
▁terminaba	-8017
▁Fiódorovna	-8018
▁argumentos	-8019
▁consciente	-8020
▁contenerse	-8021
▁enrojecido	-8022
▁entusiasta	-8023
▁escuchaban	-8024
▁expresaban	-8025
▁hábilmente	-8026
▁impaciente	-8027
▁monasterio	-8028
▁parecieron	-8029
▁proximidad	-8030
▁satisfacer	-8031
▁silenciosa	-8032
▁terciopelo	-8033
▁alojamiento	-8034
▁apartándose	-8035
▁constituían	-8036
▁cortésmente	-8037
▁experimentó	-8038
▁pertenecían	-8039
▁presentarse	-8040
▁profundidad	-8041
▁recompensas	-8042
▁silenciosos	-8043
▁abiertamente	-8044
▁comprensible	-8045
▁contemplaban	-8046
▁desconfianza	-8047
▁innumerables	-8048
▁superioridad	-8049
▁recientemente	-8050
▁exclusivamente	-8051
▁insignificantes	-8052
▁manifestaciones	-8053
Ce	-8054
vé	-8055
óv	-8056
Lle	-8057
bal	-8058
gón	-8059
ija	-8060
irá	-8061
ite	-8062
orr	-8063
tid	-8064
ule	-8065
ume	-8066
uxh	-8067
zur	-8068
ène	-8069
▁bé	-8070
Cuál	-8071
Eres	-8072
Otra	-8073
Sire	-8074
anim	-8075
core	-8076
cosa	-8077
ctur	-8078
erci	-8079
etas	-8080
feli	-8081
fera	-8082
graf	-8083
igue	-8084
iota	-8085
leza	-8086
mist	-8087
naia	-8088
obra	-8089
ogía	-8090
omme	-8091
pada	-8092
perg	-8093
piti	-8094
ravo	-8095
tará	-8096
tela	-8097
ulta	-8098
zura	-8099
▁Acu	-8100
▁Don	-8101
▁Gol	-8102
▁Ign	-8103
▁Jog	-8104
▁Nin	-8105
▁Plá	-8106
▁Pri	-8107
▁Voy	-8108
▁abo	-8109
▁cat	-8110
▁cet	-8111
▁cic	-8112
▁cif	-8113
▁eta	-8114
▁eva	-8115
▁far	-8116
▁haz	-8117
▁mot	-8118
▁plu	-8119
▁reñ	-8120
▁rug	-8121
▁rup	-8122
▁som	-8123
▁toc	-8124
▁vel	-8125
▁vil	-8126
Fuera	-8127
Padre	-8128
Puede	-8129
adver	-8130
ceder	-8131
cinas	-8132
corro	-8133
ctada	-8134
decía	-8135
doras	-8136
gorod	-8137
hiers	-8138
jours	-8139
media	-8140
olvió	-8141
pados	-8142
sperg	-8143
tarla	-8144
tente	-8145
timos	-8146
tones	-8147
uerzo	-8148
vange	-8149
▁Buxh	-8150
▁Cons	-8151
▁Creo	-8152
▁Daní	-8153
▁Mary	-8154
▁Unas	-8155
▁actú	-8156
▁aflu	-8157
▁agol	-8158
▁agru	-8159
▁aman	-8160
▁amos	-8161
▁atro	-8162
▁bara	-8163
▁cela	-8164
▁cham	-8165
▁chil	-8166
▁cómi	-8167
▁desd	-8168
▁disi	-8169
▁dote	-8170
▁enre	-8171
▁fera	-8172
▁hala	-8173
▁here	-8174
▁inoc	-8175
▁juro	-8176
▁mila	-8177
▁méri	-8178
▁peda	-8179
▁pope	-8180
▁pren	-8181
▁redo	-8182
▁sier	-8183
▁torn	-8184
▁trom	-8185
▁unía	-8186
Aunque	-8187
Cuánto	-8188
Parece	-8189
cuerdo	-8190
ología	-8191
quezas	-8192
resist	-8193
tienen	-8194
tischi	-8195
uerzos	-8196
zación	-8197
▁Karai	-8198
▁Milka	-8199
▁Nunca	-8200
▁Quien	-8201
▁Semej	-8202
▁Supon	-8203
▁Tiene	-8204
▁Vamos	-8205
▁Vaska	-8206
▁agrup	-8207
▁aguja	-8208
▁amada	-8209
▁ancho	-8210
▁artes	-8211
▁avena	-8212
▁bajas	-8213
▁banda	-8214
▁burla	-8215
▁codos	-8216
▁debió	-8217
▁empol	-8218
▁empuj	-8219
▁escas	-8220
▁extin	-8221
▁girar	-8222
▁génér	-8223
▁hablo	-8224
▁hogar	-8225
▁huido	-8226
▁ideal	-8227
▁impon	-8228
▁impre	-8229
▁inclu	-8230
▁letra	-8231
▁logró	-8232
▁malos	-8233
▁matem	-8234
▁mazur	-8235
▁mensa	-8236
▁novio	-8237
▁ocupó	-8238
▁prusi	-8239
▁quand	-8240
▁revol	-8241
▁soltó	-8242
▁suyas	-8243
▁techo	-8244
▁tonto	-8245
▁tortu	-8246
▁vasos	-8247
Estamos	-8248
cesible	-8249
honneur	-8250
namente	-8251
óvgorod	-8252
▁Evange	-8253
▁Joguel	-8254
▁Ningun	-8255
▁Plátov	-8256
▁Thiers	-8257
▁amante	-8258
▁cesaba	-8259
▁clamor	-8260
▁cogido	-8261
▁correg	-8262
▁cristi	-8263
▁cuñado	-8264
▁darles	-8265
▁dichas	-8266
▁discre	-8267
▁discur	-8268
▁estima	-8269
▁famoso	-8270
▁galopó	-8271
▁grados	-8272
▁helada	-8273
▁hundió	-8274
▁idiota	-8275
▁infeli	-8276
▁injust	-8277
▁marchó	-8278
▁mascul	-8279
▁medias	-8280
▁miseri	-8281
▁modelo	-8282
▁obliga	-8283
▁platos	-8284
▁servid	-8285
▁servil	-8286
▁soltar	-8287
▁sombre	-8288
▁tambor	-8289
▁terror	-8290
▁trajes	-8291
▁trenza	-8292
▁tribun	-8293
▁tímido	-8294
▁vender	-8295
▁yacían	-8296
rónushka	-8297
▁Kuzmich	-8298
▁Vladimí	-8299
▁alejado	-8300
▁alianza	-8301
▁animaba	-8302
▁astucia	-8303
▁atender	-8304
▁auditor	-8305
▁bromear	-8306
▁cadáver	-8307
▁cantaba	-8308
▁comidas	-8309
▁conform	-8310
▁contrar	-8311
▁cuantas	-8312
▁cuentan	-8313
▁cuerdas	-8314
▁descrip	-8315
▁deseado	-8316
▁detalle	-8317
▁dolores	-8318
▁dominar	-8319
▁dulzura	-8320
▁dándole	-8321
▁escucha	-8322
▁expresa	-8323
▁forzada	-8324
▁furioso	-8325
▁guantes	-8326
▁informa	-8327
▁iniciar	-8328
▁mantuvo	-8329
▁montado	-8330
▁muebles	-8331
▁nutrido	-8332
▁obligar	-8333
▁ofender	-8334
▁opuesto	-8335
▁penacho	-8336
▁piensas	-8337
▁podrían	-8338
▁portado	-8339
▁precisa	-8340
▁predile	-8341
▁puentes	-8342
▁quiénes	-8343
▁ruptura	-8344
▁taberna	-8345
▁tapices	-8346
ladamente	-8347
áneamente	-8348
▁Kochubéi	-8349
▁adquirió	-8350
▁aproximó	-8351
▁ciencias	-8352
▁cocheros	-8353
▁concluir	-8354
▁criatura	-8355
▁decidida	-8356
▁desorgan	-8357
▁devoción	-8358
▁director	-8359
▁ejemplar	-8360
▁elección	-8361
▁entrecor	-8362
▁escondió	-8363
▁esencial	-8364
▁extrañas	-8365
▁femenina	-8366
▁figuraba	-8367
▁garganta	-8368
▁hablarle	-8369
▁interpre	-8370
▁irresist	-8371
▁jadeante	-8372
▁jubilosa	-8373
▁lanzaron	-8374
▁llamando	-8375
▁manifest	-8376
▁metralla	-8377
▁obedecer	-8378
▁ocultaba	-8379
▁ofendida	-8380
▁orquesta	-8381
▁pescante	-8382
▁pregunto	-8383
▁producto	-8384
▁recibida	-8385
▁reformas	-8386
▁resistir	-8387
▁ridículo	-8388
▁riquezas	-8389
▁sentaron	-8390
▁sujetaba	-8391
▁vuestras	-8392
▁vuestros	-8393
▁Bogdánich	-8394
▁Volkonski	-8395
▁apoderado	-8396
▁autoridad	-8397
▁bonachona	-8398
▁borrachos	-8399
▁camaradas	-8400
▁campesino	-8401
▁carruajes	-8402
▁chiquilla	-8403
▁cristales	-8404
▁descubrir	-8405
▁despreocu	-8406
▁destruido	-8407
▁divertida	-8408
▁entusiasm	-8409
▁escuchado	-8410
▁estrépito	-8411
▁guardaban	-8412
▁histórica	-8413
▁horizonte	-8414
▁indicando	-8415
▁indudable	-8416
▁inquietos	-8417
▁insensato	-8418
▁necesaria	-8419
▁permanece	-8420
▁princesse	-8421
▁respiraba	-8422
▁taciturno	-8423
▁vagamente	-8424
▁velocidad	-8425
▁Nikólushka	-8426
▁advertirlo	-8427
▁apasionada	-8428
▁arrastrado	-8429
▁brevemente	-8430
▁comensales	-8431
▁comentaban	-8432
▁condujeron	-8433
▁convencida	-8434
▁disgustaba	-8435
▁equilibrio	-8436
▁inquietaba	-8437
▁majestuoso	-8438
▁observando	-8439
▁perfección	-8440
▁prolongado	-8441
▁protección	-8442
▁quinientos	-8443
▁respetuoso	-8444
▁verdaderos	-8445
▁vergonzoso	-8446
▁avergonzado	-8447
▁conteniendo	-8448
▁desgraciado	-8449
▁determinada	-8450
▁disfrazados	-8451
▁hambrientos	-8452
▁manifestaba	-8453
▁preguntarse	-8454
▁retrocedían	-8455
▁servidumbre	-8456
▁aspiraciones	-8457
▁casualidades	-8458
▁desconocidos	-8459
▁gustosamente	-8460
▁irresistible	-8461
▁nombramiento	-8462
▁preocupación	-8463
▁pronunciando	-8464
▁respondiendo	-8465
▁sinceramente	-8466
▁Vladimírovich	-8467
▁condecoración	-8468
▁conocimientos	-8469
▁disposiciones	-8470
▁entrevistarse	-8471
▁explicaciones	-8472
▁arrepentimiento	-8473
▁definitivamente	-8474
▁incomprensibles	-8475
Pe	-8476
ki	-8477
lm	-8478
sé	-8479
áy	-8480
ít	-8481
Muy	-8482
Nos	-8483
Oui	-8484
Soy	-8485
alú	-8486
ans	-8487
aut	-8488
del	-8489
elo	-8490
ene	-8491
fre	-8492
gov	-8493
hni	-8494
hof	-8495
iar	-8496
ila	-8497
int	-8498
lav	-8499
mil	-8500
mós	-8501
oce	-8502
pel	-8503
ral	-8504
rès	-8505
sto	-8506
ulu	-8507
▁11	-8508
▁Ah	-8509
▁As	-8510
▁Ca	-8511
▁Co	-8512
▁Ro	-8513
▁cú	-8514
▁gi	-8515
Segu	-8516
avez	-8517
ayer	-8518
date	-8519
gara	-8520
ilio	-8521
ivas	-8522
izas	-8523
jate	-8524
judi	-8525
mano	-8526
mián	-8527
niki	-8528
ovár	-8529
peto	-8530
piño	-8531
rifi	-8532
tait	-8533
tinu	-8534
tsev	-8535
umir	-8536
vore	-8537
▁Kám	-8538
▁Niz	-8539
▁Soy	-8540
▁Tem	-8541
▁che	-8542
▁dic	-8543
▁ego	-8544
▁háb	-8545
▁irá	-8546
▁och	-8547
▁ont	-8548
▁soñ	-8549
▁vín	-8550
André	-8551
Claro	-8552
Habrá	-8553
Orden	-8554
ablos	-8555
deado	-8556
dimos	-8557
ieren	-8558
iment	-8559
inato	-8560
irman	-8561
jaron	-8562
jeran	-8563
leros	-8564
motiv	-8565
orges	-8566
prete	-8567
radas	-8568
riles	-8569
tigua	-8570
tismo	-8571
urada	-8572
urait	-8573
ésima	-8574
úsque	-8575
▁Esos	-8576
▁Valú	-8577
▁Veía	-8578
▁aime	-8579
▁alab	-8580
▁arma	-8581
▁celo	-8582
▁cesó	-8583
▁cose	-8584
▁cuch	-8585
▁donc	-8586
▁enca	-8587
▁fama	-8588
▁fugi	-8589
▁fére	-8590
▁gruñ	-8591
▁jura	-8592
▁leur	-8593
▁mató	-8594
▁muñe	-8595
▁prud	-8596
▁refu	-8597
▁rega	-8598
▁revi	-8599
▁reún	-8600
▁sans	-8601
▁sepa	-8602
▁sois	-8603
▁tipo	-8604
▁vaga	-8605
Espera	-8606
chaban	-8607
iciosa	-8608
inaban	-8609
inadas	-8610
iushka	-8611
sarios	-8612
ísimos	-8613
▁Andri	-8614
▁Creía	-8615
▁Decía	-8616
▁Luego	-8617
▁Olden	-8618
▁Povár	-8619
▁Yaros	-8620
▁abeja	-8621
▁armon	-8622
▁arrod	-8623
▁atmós	-8624
▁ayudó	-8625
▁barca	-8626
▁bebía	-8627
▁besti	-8628
▁cacer	-8629
▁camis	-8630
▁casar	-8631
▁ceder	-8632
▁chapo	-8633
▁charm	-8634
▁coeur	-8635
▁crees	-8636
▁curar	-8637
▁depra	-8638
▁duele	-8639
▁entab	-8640
▁evacu	-8641
▁ganar	-8642
▁gradu	-8643
▁gruñó	-8644
▁inmut	-8645
▁lleve	-8646
▁marav	-8647
▁matan	-8648
▁mieux	-8649
▁mover	-8650
▁notre	-8651
▁obrar	-8652
▁oírse	-8653
▁pausa	-8654
▁rasgo	-8655
▁rebos	-8656
▁regla	-8657
▁reina	-8658
▁reple	-8659
▁repos	-8660
▁repri	-8661
▁retor	-8662
▁revés	-8663
▁ricos	-8664
▁rubio	-8665
▁rueda	-8666
▁serle	-8667
▁sirve	-8668
▁temas	-8669
▁tácti	-8670
▁unida	-8671
casiano	-8672
entaron	-8673
gradado	-8674
iéndole	-8675
onación	-8676
▁Habían	-8677
▁Muchos	-8678
▁Nizhni	-8679
▁Sintió	-8680
▁acordó	-8681
▁alaban	-8682
▁ardían	-8683
▁armist	-8684
▁asustó	-8685
▁atraer	-8686
▁baúles	-8687
▁cargas	-8688
▁charla	-8689
▁charre	-8690
▁choque	-8691
▁combat	-8692
▁comían	-8693
▁criada	-8694
▁crimin	-8695
▁cuarta	-8696
▁dejara	-8697
▁dejaré	-8698
▁desear	-8699
▁desnud	-8700
▁echaba	-8701
▁elegir	-8702
▁empleo	-8703
▁femmes	-8704
▁formar	-8705
▁franca	-8706
▁giraba	-8707
▁guarda	-8708
▁helado	-8709
▁hommes	-8710
▁injuri	-8711
▁irrump	-8712
▁jauría	-8713
▁llenas	-8714
▁llevan	-8715
▁murmul	-8716
▁nación	-8717
▁noctur	-8718
▁objetó	-8719
▁olvido	-8720
▁petite	-8721
▁postas	-8722
▁prestó	-8723
▁pureza	-8724
▁quemar	-8725
▁rebaño	-8726
▁repugn	-8727
▁resfri	-8728
▁robado	-8729
▁siglos	-8730
▁súbito	-8731
▁vuelva	-8732
Nóvgorod	-8733
cionales	-8734
inamente	-8735
laciones	-8736
lamiento	-8737
▁Estaban	-8738
▁Georges	-8739
▁Imperio	-8740
▁Ivánich	-8741
▁Nicolás	-8742
▁agitaba	-8743
▁amenaza	-8744
▁aparece	-8745
▁aumenta	-8746
▁aumento	-8747
▁calidad	-8748
▁casarme	-8749
▁chambel	-8750
▁charlar	-8751
▁complic	-8752
▁confund	-8753
▁cordial	-8754
▁cortina	-8755
▁costado	-8756
▁cruzaba	-8757
▁educado	-8758
▁encoler	-8759
▁enfermi	-8760
▁erguido	-8761
▁escoger	-8762
▁escribe	-8763
▁esperan	-8764
▁espoleó	-8765
▁estupor	-8766
▁excusas	-8767
▁extingu	-8768
▁fracaso	-8769
▁féretro	-8770
▁granero	-8771
▁gustado	-8772
▁général	-8773
▁haberla	-8774
▁huésped	-8775
▁hábiles	-8776
▁inmotiv	-8777
▁insolub	-8778
▁intriga	-8779
▁mediana	-8780
▁moderna	-8781
▁nombres	-8782
▁ochenta	-8783
▁operado	-8784
▁opuesta	-8785
▁ordenar	-8786
▁ordinar	-8787
▁oyentes	-8788
▁pelliza	-8789
▁penosos	-8790
▁perdone	-8791
▁persecu	-8792
▁redondo	-8793
▁refiere	-8794
▁sensato	-8795
▁sentaba	-8796
▁suprema	-8797
▁tomadas	-8798
▁trineos	-8799
▁vencido	-8800
▁veremos	-8801
Permítame	-8802
ciaciones	-8803
▁Yaroslav	-8804
▁actuales	-8805
▁acuerdas	-8806
▁almuerzo	-8807
▁animadas	-8808
▁antemano	-8809
▁chaqueta	-8810
▁ciudades	-8811
▁cocinera	-8812
▁cometido	-8813
▁comienza	-8814
▁comtesse	-8815
▁comunica	-8816
▁contrade	-8817
▁despidió	-8818
▁doctrina	-8819
▁dormirse	-8820
▁energías	-8821
▁entendió	-8822
▁envuelta	-8823
▁equipaje	-8824
▁esperara	-8825
▁espontán	-8826
▁estrecha	-8827
▁formando	-8828
▁granadas	-8829
▁guiñando	-8830
▁heredero	-8831
▁hermanas	-8832
▁inconven	-8833
▁indicaba	-8834
▁llenaron	-8835
▁llorando	-8836
▁marchaba	-8837
▁matemáti	-8838
▁negativa	-8839
▁palafren	-8840
▁pariente	-8841
▁partidos	-8842
▁percibía	-8843
▁perfecto	-8844
▁perplejo	-8845
▁procedía	-8846
▁quitarse	-8847
▁repetido	-8848
▁señalado	-8849
▁sintiera	-8850
▁sometido	-8851
▁sudoroso	-8852
▁toujours	-8853
▁traición	-8854
▁transpar	-8855
▁ventajos	-8856
▁virtudes	-8857
adicciones	-8858
▁Auersperg	-8859
▁Danílovna	-8860
▁Magnitski	-8861
▁acudieron	-8862
▁aparecido	-8863
▁aprendido	-8864
▁artillero	-8865
▁asesinato	-8866
▁atmósfera	-8867
▁atracción	-8868
▁caminando	-8869
▁centinela	-8870
▁comprobar	-8871
▁contraria	-8872
▁cortesano	-8873
▁degradado	-8874
▁descender	-8875
▁descendía	-8876
▁dominarse	-8877
▁estupidez	-8878
▁expulsado	-8879
▁extendido	-8880
▁franqueza	-8881
▁incendiar	-8882
▁inoportun	-8883
▁magnánimo	-8884
▁moscovita	-8885
▁permitido	-8886
▁precisión	-8887
▁pronunció	-8888
▁reconcili	-8889
▁reprochar	-8890
▁sencillas	-8891
▁separaban	-8892
▁separaron	-8893
▁soberanos	-8894
▁violencia	-8895
▁Bogdánovna	-8896
▁Emperatriz	-8897
▁Oldenburgo	-8898
▁Povárskaia	-8899
▁acariciaba	-8900
▁agradecida	-8901
▁archiduque	-8902
▁armisticio	-8903
▁decisiones	-8904
▁destrozado	-8905
▁diferentes	-8906
▁divisiones	-8907
▁débilmente	-8908
▁escritorio	-8909
▁estremecía	-8910
▁excitación	-8911
▁explicarse	-8912
▁ignorancia	-8913
▁imaginarse	-8914
▁indecisión	-8915
▁individuos	-8916
▁majestuosa	-8917
▁manifiesta	-8918
▁necesarios	-8919
▁obstáculos	-8920
▁pantalones	-8921
▁reprochaba	-8922
▁seriamente	-8923
▁siguientes	-8924
▁vanguardia	-8925
▁Seguramente	-8926
▁adversarios	-8927
▁comentarios	-8928
▁desesperada	-8929
▁dignatarios	-8930
▁encendieron	-8931
▁espectáculo	-8932
▁hombrecillo	-8933
▁preguntaban	-8934
▁preguntaron	-8935
▁propiedades	-8936
▁realización	-8937
▁reconocerlo	-8938
▁responsable	-8939
▁temblorosas	-8940
▁comprendería	-8941
▁consiguiente	-8942
▁distinguirse	-8943
▁experimentar	-8944
▁inspeccionar	-8945
▁intensamente	-8946
▁merodeadores	-8947
▁representaba	-8948
▁destacamentos	-8949
▁consentimiento	-8950
▁principalmente	-8951
▁apresuradamente	-8952
▁contradicciones	-8953
On	-8954
ah	-8955
eh	-8956
ps	-8957
sh	-8958
ys	-8959
áb	-8960
év	-8961
úd	-8962
Mal	-8963
Sin	-8964
cér	-8965
eta	-8966
fal	-8967
gal	-8968
gri	-8969
iat	-8970
iel	-8971
ise	-8972
isi	-8973
jér	-8974
lis	-8975
omí	-8976
pto	-8977
sab	-8978
ubo	-8979
usa	-8980
uve	-8981
uvo	-8982
vel	-8983
vor	-8984
ími	-8985
▁Ob	-8986
▁Ru	-8987
▁cl	-8988
▁cá	-8989
...?	-8990
Esta	-8991
Esto	-8992
adlo	-8993
adme	-8994
ajar	-8995
ares	-8996
azán	-8997
cate	-8998
chen	-8999
chik	-9000
cier	-9001
cles	-9002
ctas	-9003
cule	-9004
figu	-9005
idel	-9006
ider	-9007
ient	-9008
intz	-9009
irla	-9010
ivos	-9011
iódi	-9012
orre	-9013
ozco	-9014
risa	-9015
rope	-9016
rote	-9017
telo	-9018
tron	-9019
tría	-9020
uver	-9021
áneo	-9022
ázar	-9023
ídas	-9024
ítmi	-9025
úcar	-9026
▁Bas	-9027
▁Cam	-9028
▁Gor	-9029
▁Mat	-9030
▁Ped	-9031
▁Sac	-9032
▁Ulm	-9033
▁Ver	-9034
▁asc	-9035
▁cen	-9036
▁cro	-9037
▁cur	-9038
▁jug	-9039
▁non	-9040
▁ole	-9041
▁ost	-9042
▁pod	-9043
▁pág	-9044
▁sel	-9045
▁tap	-9046
▁vos	-9047
Bravo	-9048
Desde	-9049
Están	-9050
Mucha	-9051
Sería	-9052
armée	-9053
cifer	-9054
cindi	-9055
cirse	-9056
ciría	-9057
donde	-9058
ecido	-9059
ecían	-9060
ervor	-9061
homme	-9062
ieras	-9063
izada	-9064
jarse	-9065
licos	-9066
monia	-9067
paron	-9068
peras	-9069
porte	-9070
stein	-9071
uvera	-9072
vadas	-9073
áyase	-9074
ílich	-9075
▁Bolk	-9076
▁Cual	-9077
▁Ejér	-9078
▁Hizo	-9079
▁alco	-9080
▁anfi	-9081
▁beso	-9082
▁bron	-9083
▁café	-9084
▁cera	-9085
▁coro	-9086
▁dará	-9087
▁dirá	-9088
▁exha	-9089
▁fois	-9090
▁giró	-9091
▁haza	-9092
▁intu	-9093
▁juer	-9094
▁ladr	-9095
▁lent	-9096
▁moch	-9097
▁mono	-9098
▁nuca	-9099
▁olas	-9100
▁opri	-9101
▁paro	-9102
▁paró	-9103
▁peut	-9104
▁priv	-9105
▁relu	-9106
▁rota	-9107
▁sera	-9108
▁sién	-9109
▁trai	-9110
▁ávid	-9111
Además	-9112
Verdad	-9113
ciales	-9114
cribía	-9115
cristo	-9116
cámara	-9117
dieran	-9118
dremos	-9119
ernero	-9120
hombre	-9121
licado	-9122
obrazh	-9123
orrain	-9124
puesto	-9125
quetón	-9126
tillón	-9127
ázarev	-9128
▁Bielo	-9129
▁Cerca	-9130
▁Fuera	-9131
▁Matri	-9132
▁Natal	-9133
▁Neces	-9134
▁aclar	-9135
▁ajena	-9136
▁ajeno	-9137
▁asomó	-9138
▁autén	-9139
▁bebió	-9140
▁calce	-9141
▁celui	-9142
▁cinta	-9143
▁comod	-9144
▁debes	-9145
▁desat	-9146
▁dilig	-9147
▁dobló	-9148
▁elocu	-9149
▁embar	-9150
▁empap	-9151
▁hagas	-9152
▁hormi	-9153
▁jeune	-9154
▁julio	-9155
▁linde	-9156
▁mezqu	-9157
▁muros	-9158
▁oprim	-9159
▁pasan	-9160
▁pluma	-9161
▁porte	-9162
▁priva	-9163
▁puñal	-9164
▁rabia	-9165
▁ricas	-9166
▁rítmi	-9167
▁salas	-9168
▁santo	-9169
▁sonar	-9170
▁sones	-9171
▁sonro	-9172
▁tacto	-9173
▁torre	-9174
▁tradu	-9175
▁trece	-9176
▁valla	-9177
▁veloz	-9178
▁vende	-9179
▁vivos	-9180
▁voyez	-9181
Denísov	-9182
Después	-9183
entando	-9184
eriores	-9185
gándose	-9186
intzing	-9187
lejidad	-9188
rupción	-9189
uestran	-9190
▁Fiódor	-9191
▁Grande	-9192
▁Scherb	-9193
▁Seguía	-9194
▁Sonrió	-9195
▁Tierra	-9196
▁acalor	-9197
▁actual	-9198
▁afectu	-9199
▁afirmó	-9200
▁atrajo	-9201
▁azúcar	-9202
▁bajaba	-9203
▁balcón	-9204
▁breves	-9205
▁brillo	-9206
▁búsque	-9207
▁calcul	-9208
▁capitu	-9209
▁celebr	-9210
▁cifras	-9211
▁comido	-9212
▁comité	-9213
▁compás	-9214
▁cortos	-9215
▁crimen	-9216
▁cuento	-9217
▁cuerda	-9218
▁desvan	-9219
▁dirige	-9220
▁empeor	-9221
▁encore	-9222
▁estamp	-9223
▁exceso	-9224
▁exigió	-9225
▁fervor	-9226
▁fortal	-9227
▁físico	-9228
▁gemido	-9229
▁hacién	-9230
▁indulg	-9231
▁llaves	-9232
▁locomo	-9233
▁mechón	-9234
▁metido	-9235
▁montón	-9236
▁negaba	-9237
▁obligó	-9238
▁obrero	-9239
▁oculta	-9240
▁odiaba	-9241
▁ojeada	-9242
▁partid	-9243
▁pedían	-9244
▁pequeñ	-9245
▁perdía	-9246
▁pieles	-9247
▁pliego	-9248
▁pobres	-9249
▁purifi	-9250
▁retuvo	-9251
▁reunir	-9252
▁reírse	-9253
▁rodean	-9254
▁sienes	-9255
▁surgía	-9256
▁templo	-9257
▁tenéis	-9258
▁trompe	-9259
▁unidos	-9260
▁vendrá	-9261
▁victor	-9262
▁vileza	-9263
animidad	-9264
cindible	-9265
lamentos	-9266
ídamente	-9267
▁Deseaba	-9268
▁Lorrain	-9269
▁Pasaron	-9270
▁Vuestra	-9271
▁abrazar	-9272
▁acabado	-9273
▁acogida	-9274
▁adivinó	-9275
▁alemana	-9276
▁anteojo	-9277
▁arrancó	-9278
▁asintió	-9279
▁atrevió	-9280
▁bailaba	-9281
▁callado	-9282
▁captura	-9283
▁cayeron	-9284
▁colocar	-9285
▁comprar	-9286
▁confiar	-9287
▁cuartel	-9288
▁descomp	-9289
▁dichoso	-9290
▁disimul	-9291
▁enterne	-9292
▁enteros	-9293
▁estrech	-9294
▁estribo	-9295
▁examinó	-9296
▁extrema	-9297
▁fastidi	-9298
▁frotaba	-9299
▁gruesas	-9300
▁hablase	-9301
▁inadver	-9302
▁inmedia	-9303
▁jugando	-9304
▁lejanos	-9305
▁leyendo	-9306
▁llevara	-9307
▁melancó	-9308
▁molesto	-9309
▁muestra	-9310
▁nulidad	-9311
▁oscuras	-9312
▁periódi	-9313
▁poderes	-9314
▁pregunt	-9315
▁promesa	-9316
▁puestas	-9317
▁pública	-9318
▁público	-9319
▁recobró	-9320
▁recomen	-9321
▁regalos	-9322
▁rendido	-9323
▁retener	-9324
▁rodeada	-9325
▁sacando	-9326
▁sacrist	-9327
▁secreta	-9328
▁separar	-9329
▁socorro	-9330
▁sombría	-9331
▁surgían	-9332
▁temiera	-9333
▁tendido	-9334
▁tirando	-9335
▁tiroteo	-9336
▁tocando	-9337
▁troncos	-9338
▁vocifer	-9339
▁víctima	-9340
didamente	-9341
▁Ejército	-9342
▁Vasílich	-9343
▁acordaba	-9344
▁adivinar	-9345
▁apartado	-9346
▁apresuró	-9347
▁asegurar	-9348
▁bailarín	-9349
▁campanas	-9350
▁canallas	-9351
▁cocinero	-9352
▁cogiendo	-9353
▁contigua	-9354
▁dedicaba	-9355
▁derechos	-9356
▁discutía	-9357
▁dividido	-9358
▁evitando	-9359
▁familias	-9360
▁fastidio	-9361
▁graciosa	-9362
▁gustaban	-9363
▁heroísmo	-9364
▁indicios	-9365
▁informar	-9366
▁intrigas	-9367
▁lentitud	-9368
▁llevaran	-9369
▁luminoso	-9370
▁mochilas	-9371
▁modestia	-9372
▁mostrado	-9373
▁ocuparse	-9374
▁ordenara	-9375
▁pantalón	-9376
▁parapeto	-9377
▁partidas	-9378
▁penetrar	-9379
▁perdonar	-9380
▁probable	-9381
▁profesor	-9382
▁pudieron	-9383
▁reducido	-9384
▁reservas	-9385
▁revelado	-9386
▁teniendo	-9387
▁viviendo	-9388
▁vísperas	-9389
▁Andriusha	-9390
▁Preobrazh	-9391
▁Yaroslavl	-9392
▁adivinaba	-9393
▁aniquilar	-9394
▁aventuras	-9395
▁bellísima	-9396
▁carcajada	-9397
▁cariñosas	-9398
▁carretela	-9399
▁ceremonia	-9400
▁chiquillo	-9401
▁condesita	-9402
▁contentos	-9403
▁contraído	-9404
▁creciente	-9405
▁cumplirse	-9406
▁descalzos	-9407
▁describir	-9408
▁descubrió	-9409
▁detenidos	-9410
▁disponían	-9411
▁ejecución	-9412
▁encuentre	-9413
▁enterarse	-9414
▁escaleras	-9415
▁examinaba	-9416
▁fugitivos	-9417
▁golpeando	-9418
▁hermandad	-9419
▁importaba	-9420
▁intimidad	-9421
▁lamentaba	-9422
▁lecciones	-9423
▁ministros	-9424
▁obligados	-9425
▁pretendía	-9426
▁prohibido	-9427
▁realizado	-9428
▁recepción	-9429
▁reconocen	-9430
▁reconocía	-9431
▁repulsión	-9432
▁reservado	-9433
▁resfriado	-9434
▁reunieron	-9435
▁saloncito	-9436
▁separadas	-9437
▁tabernero	-9438
▁vacilante	-9439
▁victorias	-9440
▁admitiendo	-9441
▁animándose	-9442
▁antecámara	-9443
▁artificial	-9444
▁atravesado	-9445
▁concepción	-9446
▁conquistar	-9447
▁conservaba	-9448
▁consideran	-9449
▁constituye	-9450
▁desarrollo	-9451
▁despertado	-9452
▁desventura	-9453
▁encendidas	-9454
▁envejecido	-9455
▁especiales	-9456
▁estridente	-9457
▁estuvieron	-9458
▁excelentes	-9459
▁expedición	-9460
▁explicarle	-9461
▁gravemente	-9462
▁inferiores	-9463
▁intérprete	-9464
▁locomotora	-9465
▁mantenerse	-9466
▁municiones	-9467
▁patriótico	-9468
▁perseguido	-9469
▁reputación	-9470
▁sacudiendo	-9471
▁servilleta	-9472
▁sinceridad	-9473
▁superficie	-9474
intzingerode	-9475
robablemente	-9476
videntemente	-9477
▁Bolkónskaia	-9478
▁charreteras	-9479
▁corresponde	-9480
▁desaparecer	-9481
▁despreciaba	-9482
▁fortificado	-9483
▁generosidad	-9484
▁insistencia	-9485
▁institutriz	-9486
▁mentalmente	-9487
▁palafrenero	-9488
▁persecución	-9489
▁subteniente	-9490
▁aprovechando	-9491
▁generalísimo	-9492
▁irónicamente	-9493
▁justificarse	-9494
▁reconociendo	-9495
▁comprendieron	-9496
▁continuamente	-9497
▁negociaciones	-9498
▁posibilidades	-9499
▁resueltamente	-9500
▁Preobrazhenski	-9501
▁distraídamente	-9502
▁frecuentemente	-9503
▁imprescindible	-9504
▁repentinamente	-9505
▁resplandeciente	-9506
▁silenciosamente	-9507
Ar	-9508
Da	-9509
Ex	-9510
af	-9511
ié	-9512
”;	-9513
Bah	-9514
Com	-9515
Cál	-9516
Hum	-9517
gué	-9518
hab	-9519
ime	-9520
iré	-9521
leg	-9522
mpe	-9523
pol	-9524
son	-9525
uci	-9526
uva	-9527
yan	-9528
zca	-9529
íti	-9530
▁Au	-9531
▁On	-9532
▁Os	-9533
▁eh	-9534
▁vu	-9535
...;	-9536
Debe	-9537
Escu	-9538
alie	-9539
chov	-9540
coup	-9541
dera	-9542
edas	-9543
evol	-9544
gana	-9545
gual	-9546
iero	-9547
ilos	-9548
incu	-9549
inte	-9550
irro	-9551
jito	-9552
mart	-9553
olst	-9554
olái	-9555
orog	-9556
orán	-9557
rate	-9558
tazo	-9559
temb	-9560
tona	-9561
tran	-9562
tual	-9563
ugai	-9564
vori	-9565
vski	-9566
vían	-9567
ácea	-9568
étri	-9569
▁Fue	-9570
▁Han	-9571
▁Lan	-9572
▁Mál	-9573
▁Nap	-9574
▁Ney	-9575
▁Rap	-9576
▁Sav	-9577
▁Sub	-9578
▁air	-9579
▁aul	-9580
▁cra	-9581
▁cán	-9582
▁déj	-9583
▁dés	-9584
▁evo	-9585
▁mod	-9586
▁már	-9587
▁pub	-9588
▁ran	-9589
▁ris	-9590
▁urg	-9591
▁uso	-9592
Allez	-9593
Había	-9594
Nunca	-9595
Sigue	-9596
amour	-9597
cesos	-9598
comte	-9599
dadas	-9600
doros	-9601
estía	-9602
gante	-9603
gicos	-9604
grada	-9605
gueia	-9606
guntó	-9607
heure	-9608
idado	-9609
iensa	-9610
igual	-9611
jadas	-9612
pañas	-9613
raría	-9614
sidad	-9615
tarme	-9616
teaba	-9617
tilla	-9618
urado	-9619
varon	-9620
vimos	-9621
ática	-9622
ífico	-9623
▁Cher	-9624
▁Debe	-9625
▁Kais	-9626
▁Pela	-9627
▁Pres	-9628
▁Tver	-9629
▁Víst	-9630
▁adul	-9631
▁afer	-9632
▁affa	-9633
▁afil	-9634
▁agri	-9635
▁alba	-9636
▁asim	-9637
▁atur	-9638
▁azar	-9639
▁bomb	-9640
▁bons	-9641
▁brib	-9642
▁cour	-9643
▁crep	-9644
▁crey	-9645
▁defe	-9646
▁dele	-9647
▁diam	-9648
▁forz	-9649
▁gota	-9650
▁inso	-9651
▁isla	-9652
▁juez	-9653
▁láti	-9654
▁mata	-9655
▁metá	-9656
▁muro	-9657
▁mère	-9658
▁olía	-9659
▁padr	-9660
▁pelu	-9661
▁pude	-9662
▁recí	-9663
▁ridi	-9664
▁sano	-9665
▁seré	-9666
▁tous	-9667
▁trop	-9668
▁unir	-9669
▁vois	-9670
▁zona	-9671
Buenos	-9672
Mañana	-9673
Quiere	-9674
andada	-9675
anoche	-9676
charse	-9677
ciocho	-9678
cuerda	-9679
cultor	-9680
cuándo	-9681
grafía	-9682
irrojo	-9683
olstói	-9684
ombres	-9685
omílov	-9686
porque	-9687
temart	-9688
tieran	-9689
ueltos	-9690
unción	-9691
viendo	-9692
▁Abrió	-9693
▁Cinco	-9694
▁Dorog	-9695
▁Entró	-9696
▁Gorki	-9697
▁Puede	-9698
▁Recib	-9699
▁Stein	-9700
▁Temía	-9701
▁abneg	-9702
▁absor	-9703
▁altar	-9704
▁atron	-9705
▁bolso	-9706
▁bravo	-9707
▁calva	-9708
▁ciego	-9709
▁custo	-9710
▁dadas	-9711
▁dejan	-9712
▁desdi	-9713
▁deshe	-9714
▁deuda	-9715
▁dispu	-9716
▁dormi	-9717
▁espar	-9718
▁excus	-9719
▁fecha	-9720
▁fidel	-9721
▁fison	-9722
▁furor	-9723
▁hacha	-9724
▁hayan	-9725
▁hayas	-9726
▁hones	-9727
▁ingra	-9728
▁inmin	-9729
▁justa	-9730
▁lazos	-9731
▁lento	-9732
▁listo	-9733
▁llano	-9734
▁lobos	-9735
▁manta	-9736
▁matin	-9737
▁matiz	-9738
▁meter	-9739
▁monde	-9740
▁propa	-9741
▁reino	-9742
▁remor	-9743
▁resid	-9744
▁rotos	-9745
▁rubia	-9746
▁russe	-9747
▁salen	-9748
▁santa	-9749
▁simul	-9750
▁talle	-9751
▁trono	-9752
▁valer	-9753
▁villa	-9754
▁viven	-9755
Compren	-9756
Nikolái	-9757
Quieres	-9758
Todavía	-9759
cándose	-9760
después	-9761
entados	-9762
gnoraba	-9763
lándose	-9764
orrales	-9765
siempre	-9766
tándolo	-9767
▁Carlos	-9768
▁Dentro	-9769
▁Mañana	-9770
▁Rumián	-9771
▁absorb	-9772
▁alboro	-9773
▁aliado	-9774
▁amigas	-9775
▁anchas	-9776
▁anillo	-9777
▁animar	-9778
▁arrojó	-9779
▁bellas	-9780
▁besaba	-9781
▁bridas	-9782
▁califi	-9783
▁callej	-9784
▁cambia	-9785
▁captar	-9786
▁ceñudo	-9787
▁chirri	-9788
▁cintas	-9789
▁cometa	-9790
▁creído	-9791
▁cubrir	-9792
▁deshon	-9793
▁design	-9794
▁desorb	-9795
▁diario	-9796
▁dijese	-9797
▁disolu	-9798
▁divina	-9799
▁durmió	-9800
▁empujó	-9801
▁enarde	-9802
▁estilo	-9803
▁filoso	-9804
▁fracas	-9805
▁frunci	-9806
▁gorros	-9807
▁gozosa	-9808
▁habrán	-9809
▁increí	-9810
▁incómo	-9811
▁ligera	-9812
▁llanto	-9813
▁mentir	-9814
▁merced	-9815
▁mesita	-9816
▁mezcla	-9817
▁muerta	-9818
▁muñeca	-9819
▁mérite	-9820
▁normal	-9821
▁pasará	-9822
▁patios	-9823
▁pesada	-9824
▁planta	-9825
▁plegar	-9826
▁polaca	-9827
▁región	-9828
▁resbal	-9829
▁rieron	-9830
▁salita	-9831
▁serena	-9832
▁sereno	-9833
▁socios	-9834
▁solter	-9835
▁sumido	-9836
▁temper	-9837
▁tendré	-9838
▁tendía	-9839
▁tesoro	-9840
▁tocado	-9841
▁tronco	-9842
▁vieran	-9843
▁virrey	-9844
▁visión	-9845
ctadores	-9846
empereur	-9847
onterías	-9848
tidumbre	-9849
tiéndose	-9850
volución	-9851
▁Bielova	-9852
▁Estados	-9853
▁Lázarev	-9854
▁Ninguno	-9855
▁Scherer	-9856
▁Vístula	-9857
▁acuerda	-9858
▁afortun	-9859
▁alturas	-9860
▁alusión	-9861
▁alzando	-9862
▁apoyaba	-9863
▁apuesta	-9864
▁arregló	-9865
▁arrodil	-9866
▁atacado	-9867
▁atropel	-9868
▁benevol	-9869
▁callaba	-9870
▁cambios	-9871
▁canalla	-9872
▁cargado	-9873
▁causado	-9874
▁comunes	-9875
▁contras	-9876
▁costaba	-9877
▁creerlo	-9878
▁cuidaba	-9879
▁cuántos	-9880
▁decidía	-9881
▁decirme	-9882
▁definir	-9883
▁desgana	-9884
▁deslizó	-9885
▁dichosa	-9886
▁diversa	-9887
▁empezar	-9888
▁empieza	-9889
▁entrara	-9890
▁entreab	-9891
▁entrist	-9892
▁erguida	-9893
▁exigían	-9894
▁fijarse	-9895
▁heroico	-9896
▁húmedos	-9897
▁impulso	-9898
▁ininter	-9899
▁injusto	-9900
▁irónico	-9901
▁lanzado	-9902
▁llegara	-9903
▁malvado	-9904
▁mansión	-9905
▁matarse	-9906
▁miembro	-9907
▁montero	-9908
▁morales	-9909
▁obreros	-9910
▁organiz	-9911
▁origina	-9912
▁orillas	-9913
▁parezca	-9914
▁perfume	-9915
▁pliegue	-9916
▁polvori	-9917
▁poética	-9918
▁quemado	-9919
▁recogió	-9920
▁retirar	-9921
▁rojizas	-9922
▁sacaron	-9923
▁salvaje	-9924
▁servido	-9925
▁sienten	-9926
▁simples	-9927
▁souvera	-9928
▁suplicó	-9929
▁tambale	-9930
▁traigan	-9931
▁tuviese	-9932
▁univers	-9933
▁ventaja	-9934
▁vestían	-9935
▁vicomte	-9936
▁viniera	-9937
Muchachos	-9938
Nikóleñka	-9939
Perdóneme	-9940
▁abandona	-9941
▁acababan	-9942
▁acabaría	-9943
▁admiraba	-9944
▁agregado	-9945
▁alejaban	-9946
▁anécdota	-9947
▁atrevido	-9948
▁avanzada	-9949
▁beaucoup	-9950
▁botellas	-9951
▁camillas	-9952
▁campañas	-9953
▁cerradas	-9954
▁comprado	-9955
▁conforme	-9956
▁confusos	-9957
▁consejos	-9958
▁consigue	-9959
▁convenía	-9960
▁cuidados	-9961
▁deberían	-9962
▁decisivo	-9963
▁delicado	-9964
▁demostró	-9965
▁desearía	-9966
▁despecho	-9967
▁distrito	-9968
▁divertía	-9969
▁divierte	-9970
▁empujaba	-9971
▁encaminó	-9972
▁encontré	-9973
▁enderezó	-9974
▁entiende	-9975
▁estrecho	-9976
▁extendió	-9977
▁galopaba	-9978
▁guardaba	-9979
▁hicieran	-9980
▁idéntico	-9981
▁inexpres	-9982
▁inocente	-9983
▁insoport	-9984
▁instinto	-9985
▁interesa	-9986
▁limitado	-9987
▁llegamos	-9988
▁llevados	-9989
▁llevarlo	-9990
▁nerviosa	-9991
▁nosotras	-9992
▁patrulla	-9993
▁plenitud	-9994
▁político	-9995
▁precioso	-9996
▁prometía	-9997
▁proponía	-9998
▁provocar	-9999
▁quererlo	-10000
▁reacción	-10001
▁referían	-10002
▁remediar	-10003
▁reprimir	-10004
▁ridicule	-10005
▁seguidos	-10006
▁sostener	-10007
▁tormenta	-10008
▁trajeron	-10009
▁traseras	-10010
▁vehículo	-10011
▁vestirse	-10012
▁volviera	-10013
▁zíngaros	-10014
▁Alrededor	-10015
▁Mortemart	-10016
▁Pelagueia	-10017
▁Semejante	-10018
▁acercando	-10019
▁anunciaba	-10020
▁apartaron	-10021
▁apicultor	-10022
▁aprovechó	-10023
▁arrancado	-10024
▁cambiando	-10025
▁cambiaron	-10026
▁canciones	-10027
▁cantinero	-10028
▁chaquetón	-10029
▁charmante	-10030
▁comisario	-10031
▁compañías	-10032
▁comunidad	-10033
▁contenida	-10034
▁dieciocho	-10035
▁encendían	-10036
▁evidentes	-10037
▁guardaron	-10038
▁habríamos	-10039
▁iluminaba	-10040
▁madrecita	-10041
▁mantenían	-10042
▁maravilla	-10043
▁marchaban	-10044
▁organizar	-10045
▁participa	-10046
▁peligrosa	-10047
▁pelirrojo	-10048
▁perfumado	-10049
▁profundos	-10050
▁propiedad	-10051
▁queriendo	-10052
▁refuerzos	-10053
▁resonaron	-10054
▁semblante	-10055
▁sombreado	-10056
▁sonrosado	-10057
▁Rumiántsev	-10058
▁Vasílievna	-10059
▁adivinando	-10060
▁alejándose	-10061
▁austríacas	-10062
▁balanceaba	-10063
▁comenzaban	-10064
▁comprendes	-10065
▁consejeros	-10066
▁continuaba	-10067
▁corrientes	-10068
▁desacuerdo	-10069
▁desbandada	-10070
▁descendían	-10071
▁diciéndole	-10072
▁emocionado	-10073
▁encantador	-10074
▁encuentran	-10075
▁entenderlo	-10076
▁entretanto	-10077
▁escucharlo	-10078
▁granaderos	-10079
▁hambriento	-10080
▁largamente	-10081
▁levantaban	-10082
▁matorrales	-10083
▁miserables	-10084
▁peregrinos	-10085
▁poniéndose	-10086
▁propuestas	-10087
▁recibieron	-10088
▁reverencia	-10089
▁sobresalía	-10090
▁solitarios	-10091
▁suavemente	-10092
▁suplicante	-10093
▁suposición	-10094
▁territorio	-10095
▁tribunales	-10096
▁ventanilla	-10097
▁viejecillo	-10098
▁visitantes	-10099
▁ávidamente	-10100
▁Dorogomílov	-10101
▁Semiónovski	-10102
▁abandonados	-10103
▁acompañaban	-10104
▁advirtiendo	-10105
▁arrastrando	-10106
▁característ	-10107
▁componentes	-10108
▁concentrada	-10109
▁conquistado	-10110
▁contestarle	-10111
▁desgraciada	-10112
▁destrucción	-10113
▁emperadores	-10114
▁entusiastas	-10115
▁francamente	-10116
▁influencias	-10117
▁ininterrump	-10118
▁instrucción	-10119
▁interrumpir	-10120
▁naturalidad	-10121
▁necesitamos	-10122
▁negligencia	-10123
▁partidarios	-10124
▁patriotismo	-10125
▁perplejidad	-10126
▁pronunciado	-10127
▁sacrificios	-10128
▁Nikoláievich	-10129
▁capitulación	-10130
▁comprendemos	-10131
▁deteniéndose	-10132
▁encolerizado	-10133
▁entrecortada	-10134
▁esforzándose	-10135
▁espectadores	-10136
▁familiaridad	-10137
▁guerrilleros	-10138
▁inteligentes	-10139
▁misericordia	-10140
▁particulares	-10141
▁propietarios	-10142
▁suposiciones	-10143
▁transcurrido	-10144
▁ensangrentado	-10145
▁independencia	-10146
▁institutrices	-10147
▁manifestación	-10148
▁reclutamiento	-10149
▁retrocediendo	-10150
▁subordinación	-10151
▁desaparecieron	-10152
▁representación	-10153
▁estremecimiento	-10154
▁particularmente	-10155
Fí	-10156
Ni	-10157
oi	-10158
xo	-10159
íe	-10160
Ade	-10161
Bon	-10162
Bor	-10163
Mir	-10164
Pre	-10165
apá	-10166
bel	-10167
bri	-10168
bsk	-10169
bum	-10170
ceb	-10171
fia	-10172
lle	-10173
mia	-10174
nio	-10175
nys	-10176
ond	-10177
pic	-10178
pue	-10179
pán	-10180
rit	-10181
ser	-10182
she	-10183
tré	-10184
unf	-10185
yug	-10186
▁Ce	-10187
▁Fo	-10188
▁Fó	-10189
▁Oh	-10190
▁Uv	-10191
▁be	-10192
▁em	-10193
▁ep	-10194
▁om	-10195
▁ál	-10196
Cree	-10197
Debo	-10198
Dice	-10199
Vive	-10200
arte	-10201
cher	-10202
ctri	-10203
cula	-10204
céis	-10205
dese	-10206
dice	-10207
drez	-10208
déum	-10209
ence	-10210
erar	-10211
eses	-10212
este	-10213
está	-10214
esía	-10215
euse	-10216
fica	-10217
ichá	-10218
iens	-10219
ilin	-10220
inin	-10221
izco	-10222
jour	-10223
kova	-10224
kovo	-10225
lera	-10226
main	-10227
mpez	-10228
olas	-10229
quis	-10230
rame	-10231
rios	-10232
rumb	-10233
sabe	-10234
taro	-10235
torn	-10236
udir	-10237
udra	-10238
unar	-10239
vial	-10240
vili	-10241
zano	-10242
▁Can	-10243
▁Dis	-10244
▁Iré	-10245
▁Mad	-10246
▁Mit	-10247
▁Nav	-10248
▁Pok	-10249
▁Qué	-10250
▁adv	-10251
▁aje	-10252
▁cie	-10253
▁cár	-10254
▁exa	-10255
▁ful	-10256
▁oye	-10257
▁pac	-10258
▁pra	-10259
▁pur	-10260
▁rem	-10261
▁sem	-10262
▁tár	-10263
▁vía	-10264
▁zar	-10265
...?—	-10266
Atrás	-10267
Buena	-10268
Crees	-10269
Hemos	-10270
Nadie	-10271
Neces	-10272
cemos	-10273
chila	-10274
ciosa	-10275
cunda	-10276
enado	-10277
endor	-10278
enetr	-10279
firió	-10280
frica	-10281
iento	-10282
inata	-10283
issez	-10284
itsin	-10285
onada	-10286
rente	-10287
rtemb	-10288
sabes	-10289
shevo	-10290
telas	-10291
ticia	-10292
traba	-10293
turón	-10294
uelve	-10295
urist	-10296
urras	-10297
urías	-10298
utela	-10299
videz	-10300
zaría	-10301
zosas	-10302
ítimo	-10303
ñarse	-10304
▁Admi	-10305
▁Apsh	-10306
▁Atra	-10307
▁Char	-10308
▁Dijo	-10309
▁Erza	-10310
▁Esas	-10311
▁Fern	-10312
▁Hace	-10313
▁Hubo	-10314
▁Mais	-10315
▁Mira	-10316
▁Rapp	-10317
▁Shám	-10318
▁Tres	-10319
▁Tula	-10320
▁Víte	-10321
▁adqu	-10322
▁afec	-10323
▁baño	-10324
▁chab	-10325
▁coti	-10326
▁coup	-10327
▁deux	-10328
▁dile	-10329
▁dura	-10330
▁duro	-10331
▁empa	-10332
▁hipó	-10333
▁hoja	-10334
▁huía	-10335
▁leal	-10336
▁mane	-10337
▁melo	-10338
▁monó	-10339
▁obse	-10340
▁oyes	-10341
▁paño	-10342
▁pref	-10343
▁rapé	-10344
▁sale	-10345
▁semi	-10346
▁supe	-10347
▁trad	-10348
▁tuve	-10349
▁unán	-10350
▁ínfi	-10351
Ordena	-10352
Quelle	-10353
adezco	-10354
calcul	-10355
chiche	-10356
ermann	-10357
itarra	-10358
nyshev	-10359
orable	-10360
perior	-10361
quedad	-10362
quetes	-10363
resión	-10364
sieurs	-10365
tencia	-10366
tenido	-10367
ándome	-10368
íficos	-10369
ólniki	-10370
úsculo	-10371
▁Adiós	-10372
▁Antón	-10373
▁Aprak	-10374
▁Arbat	-10375
▁Const	-10376
▁Ellos	-10377
▁Fómin	-10378
▁Gilin	-10379
▁Levan	-10380
▁Media	-10381
▁Mámon	-10382
▁Pedro	-10383
▁Rugai	-10384
▁Salió	-10385
▁Santo	-10386
▁Tanto	-10387
▁Zajar	-10388
▁allez	-10389
▁aplic	-10390
▁apoyo	-10391
▁asign	-10392
▁atacó	-10393
▁bases	-10394
▁bizco	-10395
▁boste	-10396
▁botín	-10397
▁calam	-10398
▁canta	-10399
▁causó	-10400
▁chill	-10401
▁choza	-10402
▁comte	-10403
▁dejen	-10404
▁demon	-10405
▁desay	-10406
▁desha	-10407
▁desil	-10408
▁devas	-10409
▁fille	-10410
▁gesti	-10411
▁grano	-10412
▁gravi	-10413
▁habré	-10414
▁lapti	-10415
▁mantu	-10416
▁mauva	-10417
▁mosca	-10418
▁muera	-10419
▁music	-10420
▁nivel	-10421
▁niñas	-10422
▁nutri	-10423
▁oreja	-10424
▁palom	-10425
▁perez	-10426
▁perno	-10427
▁pilla	-10428
▁pipas	-10429
▁presu	-10430
▁primi	-10431
▁privi	-10432
▁promo	-10433
▁quedé	-10434
▁recto	-10435
▁relin	-10436
▁rigen	-10437
▁secos	-10438
▁serán	-10439
▁siglo	-10440
▁suble	-10441
▁tacon	-10442
▁temer	-10443
▁tendi	-10444
▁teóri	-10445
▁tiros	-10446
▁tosió	-10447
▁valen	-10448
▁varas	-10449
cebible	-10450
cándole	-10451
diencia	-10452
herente	-10453
ichágov	-10454
ilitado	-10455
licidad	-10456
quillas	-10457
ronomía	-10458
tersbur	-10459
ándoles	-10460
▁Dígame	-10461
▁Friant	-10462
▁Habría	-10463
▁Provid	-10464
▁Stepán	-10465
▁Uvárov	-10466
▁alivio	-10467
▁arruga	-10468
▁aurait	-10469
▁autres	-10470
▁avidez	-10471
▁barrio	-10472
▁bastón	-10473
▁bromeó	-10474
▁cabalg	-10475
▁civili	-10476
▁compor	-10477
▁concep	-10478
▁crecía	-10479
▁crines	-10480
▁cruces	-10481
▁desdén	-10482
▁desmon	-10483
▁despid	-10484
▁domést	-10485
▁dulces	-10486
▁décima	-10487
▁dígame	-10488
▁embria	-10489
▁empeño	-10490
▁enjuto	-10491
▁esfera	-10492
▁estatu	-10493
▁eterna	-10494
▁examin	-10495
▁explos	-10496
▁fijado	-10497
▁fijeza	-10498
▁fragor	-10499
▁fuegos	-10500
▁fundía	-10501
▁galgos	-10502
▁guante	-10503
▁habido	-10504
▁hechas	-10505
▁hilera	-10506
▁indign	-10507
▁jugaba	-10508
▁lanzar	-10509
▁lejana	-10510
▁letras	-10511
▁lógico	-10512
▁mandil	-10513
▁mental	-10514
▁mirado	-10515
▁modifi	-10516
▁mueven	-10517
▁mágico	-10518
▁máxima	-10519
▁nacido	-10520
▁olvidó	-10521
▁oscure	-10522
▁parlam	-10523
▁peales	-10524
▁perfil	-10525
▁perlas	-10526
▁perman	-10527
▁perple	-10528
▁pierde	-10529
▁poesía	-10530
▁proven	-10531
▁puedan	-10532
▁pájaro	-10533
▁rastro	-10534
▁recibo	-10535
▁reform	-10536
▁refres	-10537
▁reprim	-10538
▁reunió	-10539
▁reunía	-10540
▁rojizo	-10541
▁salpic	-10542
▁saltos	-10543
▁siguen	-10544
▁solían	-10545
▁sommes	-10546
▁suceso	-10547
▁suelta	-10548
▁surgir	-10549
▁tedéum	-10550
▁temían	-10551
▁timbre	-10552
▁tiraba	-10553
▁tirado	-10554
▁traigo	-10555
▁traían	-10556
▁turcos	-10557
▁viajes	-10558
▁éxitos	-10559
▁íntima	-10560
Adelante	-10561
Nosotros	-10562
entísimo	-10563
ivamente	-10564
tamiento	-10565
timiento	-10566
▁Compans	-10567
▁Makarin	-10568
▁Moskova	-10569
▁Primero	-10570
▁Sentado	-10571
▁Vítebsk	-10572
▁abatido	-10573
▁abrirse	-10574
▁admiten	-10575
▁alegrar	-10576
▁almohad	-10577
▁anfitri	-10578
▁aprecio	-10579
▁aquélla	-10580
▁arrebat	-10581
▁ascenso	-10582
▁atentos	-10583
▁auxilio	-10584
▁avenida	-10585
▁bagajes	-10586
▁bestias	-10587
▁billete	-10588
▁capaces	-10589
▁centeno	-10590
▁cerraba	-10591
▁cesaban	-10592
▁chambra	-10593
▁civiles	-10594
▁colinas	-10595
▁colores	-10596
▁conoces	-10597
▁corpiño	-10598
▁cristal	-10599
▁crujido	-10600
▁deprisa	-10601
▁derrumb	-10602
▁desfigu	-10603
▁difunta	-10604
▁diácono	-10605
▁educada	-10606
▁efectos	-10607
▁engañar	-10608
▁enteras	-10609
▁espanto	-10610
▁evitaba	-10611
▁firmado	-10612
▁flancos	-10613
▁gruesos	-10614
▁heridas	-10615
▁hundido	-10616
▁indicio	-10617
▁insensa	-10618
▁interna	-10619
▁ladeado	-10620
▁limpios	-10621
▁lindero	-10622
▁mazurca	-10623
▁merecía	-10624
▁mochila	-10625
▁monstru	-10626
▁nervios	-10627
▁oprimía	-10628
▁padrino	-10629
▁paisano	-10630
▁parejas	-10631
▁pasadas	-10632
▁patatas	-10633
▁penetró	-10634
▁perdían	-10635
▁persign	-10636
▁poético	-10637
▁privado	-10638
▁probado	-10639
▁proceso	-10640
▁quedara	-10641
▁quedará	-10642
▁quelque	-10643
▁quieran	-10644
▁recuper	-10645
▁recípro	-10646
▁resultó	-10647
▁riqueza	-10648
▁sacudía	-10649
▁saludos	-10650
▁táctica	-10651
▁vacilar	-10652
▁vecinos	-10653
▁viejito	-10654
▁volveré	-10655
▁vínculo	-10656
▁íntimas	-10657
Padrecito	-10658
▁Apsheron	-10659
▁Aquellos	-10660
▁Fernando	-10661
▁Gilinsky	-10662
▁Ignoraba	-10663
▁Kaisárov	-10664
▁Mitischi	-10665
▁Superior	-10666
▁abiertas	-10667
▁abrieron	-10668
▁aburrido	-10669
▁aceptada	-10670
▁afirmaba	-10671
▁agotados	-10672
▁aislados	-10673
▁amarillo	-10674
▁aprender	-10675
▁apretaba	-10676
▁artifici	-10677
▁aseguran	-10678
▁atribuía	-10679
▁bailando	-10680
▁blancura	-10681
▁bonachón	-10682
▁bondados	-10683
▁burlarse	-10684
▁celebrar	-10685
▁champaña	-10686
▁charlaba	-10687
▁charmant	-10688
▁cinturón	-10689
▁concebir	-10690
▁conducir	-10691
▁confesar	-10692
▁confiaba	-10693
▁confieso	-10694
▁confirma	-10695
▁contenía	-10696
▁contesta	-10697
▁convulsi	-10698
▁corredor	-10699
▁cruzaron	-10700
▁crímenes	-10701
▁cuchiche	-10702
▁cumplida	-10703
▁curación	-10704
▁desierto	-10705
▁desnudas	-10706
▁desorbit	-10707
▁despedir	-10708
▁destruye	-10709
▁devolver	-10710
▁dolorosa	-10711
▁dominado	-10712
▁embajada	-10713
▁empeñaba	-10714
▁encendió	-10715
▁engañado	-10716
▁esperado	-10717
▁estimaba	-10718
▁existido	-10719
▁facultad	-10720
▁faltaban	-10721
▁favorita	-10722
▁guitarra	-10723
▁hablaron	-10724
▁horrores	-10725
▁incalcul	-10726
▁indecisa	-10727
▁inexplic	-10728
▁insistía	-10729
▁jubiloso	-10730
▁lenguaje	-10731
▁llevaría	-10732
▁malenten	-10733
▁marchado	-10734
▁murmullo	-10735
▁ocupadas	-10736
▁ofrecido	-10737
▁patillas	-10738
▁peligros	-10739
▁perdidos	-10740
▁perfecta	-10741
▁pliegues	-10742
▁prestado	-10743
▁procurar	-10744
▁recuerda	-10745
▁repetían	-10746
▁reprochó	-10747
▁retrasar	-10748
▁revuelta	-10749
▁santiguó	-10750
▁sentiría	-10751
▁silbando	-10752
▁situadas	-10753
▁siéntate	-10754
▁sociales	-10755
▁sombríos	-10756
▁sonreían	-10757
▁sostiene	-10758
▁sucedían	-10759
▁supuesto	-10760
▁tambores	-10761
▁temiendo	-10762
▁terrenal	-10763
▁transpor	-10764
▁traslado	-10765
▁trasladó	-10766
▁tuvieran	-10767
▁vestidas	-10768
▁Chichágov	-10769
▁Drónushka	-10770
▁Escuchaba	-10771
▁Evangelio	-10772
▁Ostermann	-10773
▁Perdóneme	-10774
▁Shámshevo	-10775
▁Sokólniki	-10776
▁abrazando	-10777
▁acostarse	-10778
▁alabanzas	-10779
▁amenazaba	-10780
▁anécdotas	-10781
▁apretados	-10782
▁ascendido	-10783
▁austríaca	-10784
▁camareros	-10785
▁cariñosos	-10786
▁chambelán	-10787
▁charlando	-10788
▁conmovida	-10789
▁conmovido	-10790
▁considero	-10791
▁consolaba	-10792
▁construir	-10793
▁contraste	-10794
▁corazones	-10795
▁demuestra	-10796
▁descargar	-10797
▁diferenci	-10798
▁discursos	-10799
▁disminuye	-10800
▁dispersos	-10801
▁documento	-10802
▁elegantes	-10803
▁enfadarse	-10804
▁entregaba	-10805
▁esplendor	-10806
▁eternidad	-10807
▁extrañeza	-10808
▁fidelidad	-10809
▁fríamente	-10810
▁funciones	-10811
▁golpeaban	-10812
▁habituado	-10813
▁idénticos	-10814
▁increíble	-10815
▁infelices	-10816
▁messieurs	-10817
▁mirándose	-10818
▁muchísimo	-10819
▁murmuraba	-10820
▁necesitas	-10821
▁ocultando	-10822
▁ocurriría	-10823
▁olvidarlo	-10824
▁oportunas	-10825
▁ordenanza	-10826
▁palideció	-10827
▁patrullas	-10828
▁petersbur	-10829
▁prestando	-10830
▁presurosa	-10831
▁producían	-10832
▁proseguir	-10833
▁razonable	-10834
▁regordeta	-10835
▁sacristán	-10836
▁saludaban	-10837
▁siguieran	-10838
▁solicitud	-10839
▁sollozaba	-10840
▁someterse	-10841
▁sonrosada	-10842
▁sumamente	-10843
▁sustituir	-10844
▁techumbre	-10845
▁terminada	-10846
▁tiradores	-10847
▁trompetas	-10848
▁ventajoso	-10849
▁visitarla	-10850
▁vivacidad	-10851
▁Chernyshev	-10852
▁Comprendía	-10853
▁Fóminskoie	-10854
▁Scherbinin	-10855
▁abundancia	-10856
▁adelantado	-10857
▁agradables	-10858
▁apoderarse	-10859
▁arrastraba	-10860
▁astronomía	-10861
▁campanilla	-10862
▁ciudadanos	-10863
▁complicado	-10864
▁concentrar	-10865
▁construido	-10866
▁contradict	-10867
▁crepúsculo	-10868
▁demostraba	-10869
▁desaparece	-10870
▁despectiva	-10871
▁despectivo	-10872
▁entonación	-10873
▁equivocaba	-10874
▁escalinata	-10875
▁estudiante	-10876
▁exigencias	-10877
▁haciéndole	-10878
▁imposibles	-10879
▁inclinando	-10880
▁indefinida	-10881
▁inesperado	-10882
▁infantiles	-10883
▁inmotivada	-10884
▁inoportuno	-10885
▁instalaron	-10886
▁intentando	-10887
▁interesado	-10888
▁justificar	-10889
▁magníficos	-10890
▁medianoche	-10891
▁plenamente	-10892
▁preparaban	-10893
▁prolongada	-10894
▁quitándose	-10895
▁referentes	-10896
▁resoplando	-10897
▁respetuosa	-10898
▁respirando	-10899
▁retrocedió	-10900
▁sacrificar	-10901
▁satisfecha	-10902
▁separación	-10903
▁significar	-10904
▁sospechaba	-10905
▁tranquilos	-10906
▁utilizando	-10907
▁verdaderas	-10908
▁Dmítrievich	-10909
▁abandonaron	-10910
▁arrastraban	-10911
▁avergonzaba	-10912
▁bruscamente	-10913
▁comodidades	-10914
▁contradicen	-10915
▁diplomática	-10916
▁expresiones	-10917
▁extranjeros	-10918
▁horrorizada	-10919
▁inaccesible	-10920
▁inclinación	-10921
▁inevitables	-10922
▁interesaban	-10923
▁interrumpía	-10924
▁introducido	-10925
▁llamamiento	-10926
▁manifestado	-10927
▁matemáticas	-10928
▁participaba	-10929
▁perceptible	-10930
▁preocuparse	-10931
▁principales	-10932
▁pronunciaba	-10933
▁propietario	-10934
▁representar	-10935
▁restablecer	-10936
▁simplicidad	-10937
▁tendiéndole	-10938
▁benevolencia	-10939
▁civilización	-10940
▁correspondía	-10941
▁desabrochada	-10942
▁descontentos	-10943
▁impresionado	-10944
▁inconcebible	-10945
▁indiferentes	-10946
▁intervención	-10947
▁magnanimidad	-10948
▁sacrificarse	-10949
▁seguidamente	-10950
▁tranquilizar	-10951
▁transparente	-10952
▁Evidentemente	-10953
▁distracciones	-10954
▁dolorosamente	-10955
▁exclamaciones	-10956
▁habitualmente	-10957
▁imposibilidad	-10958
▁instituciones	-10959
▁preguntándose	-10960
▁representante	-10961
▁terriblemente	-10962
▁agradecimiento	-10963
▁cuidadosamente	-10964
▁interrogatorio	-10965
▁presentimiento	-10966
▁arbitrariedades	-10967
▁correspondencia	-10968
▁instintivamente	-10969
?,	-10970
In	-10971
VI	-10972
”—	-10973
▁x	-10974
Aut	-10975
Can	-10976
Dej	-10977
Ese	-10978
Ils	-10979
Mat	-10980
Vas	-10981
anc	-10982
anó	-10983
ari	-10984
ate	-10985
ath	-10986
aux	-10987
cam	-10988
end	-10989
esu	-10990
fín	-10991
gia	-10992
idt	-10993
ieb	-10994
itz	-10995
lie	-10996
mit	-10997
mpa	-10998
nia	-10999
nié	-11000
odo	-11001
odó	-11002
olé	-11003
ram	-11004
rez	-11005
tig	-11006
tié	-11007
tég	-11008
udó	-11009
ult	-11010
uss	-11011
uza	-11012
zdé	-11013
áre	-11014
érc	-11015
▁Ne	-11016
▁Pé	-11017
▁ye	-11018
Ella	-11019
Papá	-11020
Prin	-11021
Temo	-11022
abal	-11023
arca	-11024
atár	-11025
avri	-11026
años	-11027
camb	-11028
case	-11029
cera	-11030
chie	-11031
cógn	-11032
deme	-11033
dent	-11034
dite	-11035
drás	-11036
duvo	-11037
elág	-11038
empo	-11039
eria	-11040
erve	-11041
eval	-11042
ficó	-11043
ices	-11044
ides	-11045
iers	-11046
ievo	-11047
ilez	-11048
iros	-11049
lici	-11050
lime	-11051
láve	-11052
midt	-11053
nitz	-11054
ojos	-11055
osha	-11056
pica	-11057
puis	-11058
razó	-11059
sten	-11060
taré	-11061
tern	-11062
tten	-11063
uber	-11064
uhof	-11065
usos	-11066
veía	-11067
áles	-11068
énti	-11069
íase	-11070
ñosa	-11071
▁Beb	-11072
▁Esc	-11073
▁Gra	-11074
▁Int	-11075
▁Kár	-11076
▁Mes	-11077
▁Nov	-11078
▁Raz	-11079
▁Rus	-11080
▁Var	-11081
▁Voz	-11082
▁ans	-11083
▁bul	-11084
▁ceg	-11085
▁eco	-11086
▁ede	-11087
▁flu	-11088
▁gig	-11089
▁ign	-11090
▁ils	-11091
▁jur	-11092
▁llo	-11093
▁mim	-11094
▁mio	-11095
▁olv	-11096
▁ped	-11097
▁peu	-11098
▁pob	-11099
▁pru	-11100
▁pré	-11101
▁raí	-11102
▁riv	-11103
▁tea	-11104
▁tru	-11105
▁vea	-11106
▁vib	-11107
▁vid	-11108
...!—	-11109
Voilà	-11110
Yaros	-11111
arapi	-11112
arles	-11113
astas	-11114
autre	-11115
bones	-11116
celan	-11117
choso	-11118
ciado	-11119
ciese	-11120
ciona	-11121
citas	-11122
dones	-11123
garía	-11124
hacer	-11125
ierro	-11126
inosa	-11127
itada	-11128
jesté	-11129
leman	-11130
monos	-11131
mpido	-11132
quido	-11133
reras	-11134
rilla	-11135
rones	-11136
tales	-11137
temos	-11138
tesis	-11139
tique	-11140
tiver	-11141
ueles	-11142
ululu	-11143
vando	-11144
versa	-11145
vidos	-11146
yecto	-11147
élich	-11148
ólica	-11149
▁Ayer	-11150
▁Berl	-11151
▁Conf	-11152
▁Dnié	-11153
▁Gori	-11154
▁Ilar	-11155
▁Lija	-11156
▁Malo	-11157
▁Pasó	-11158
▁Pese	-11159
▁Sacó	-11160
▁Vaya	-11161
▁Vete	-11162
▁aban	-11163
▁agra	-11164
▁ahor	-11165
▁alum	-11166
▁blas	-11167
▁bord	-11168
▁casc	-11169
▁chez	-11170
▁cúpu	-11171
▁dame	-11172
▁dejo	-11173
▁deno	-11174
▁dise	-11175
▁durm	-11176
▁déci	-11177
▁edre	-11178
▁elle	-11179
▁fils	-11180
▁fuga	-11181
▁glor	-11182
▁gras	-11183
▁huyó	-11184
▁inau	-11185
▁irte	-11186
▁lana	-11187
▁manz	-11188
▁nudo	-11189
▁ocio	-11190
▁peup	-11191
▁pont	-11192
▁puis	-11193
▁quej	-11194
▁rabo	-11195
▁raro	-11196
▁reac	-11197
▁reca	-11198
▁reci	-11199
▁reto	-11200
▁seas	-11201
▁siga	-11202
▁tama	-11203
▁tant	-11204
▁teme	-11205
▁vago	-11206
▁vais	-11207
▁vals	-11208
Espero	-11209
Mamita	-11210
Menudo	-11211
Puedes	-11212
atorce	-11213
atural	-11214
avrilo	-11215
cillas	-11216
cuatro	-11217
elágue	-11218
ficado	-11219
hurras	-11220
iberia	-11221
ideces	-11222
ieblas	-11223
iremos	-11224
itaine	-11225
itaron	-11226
lávets	-11227
quiles	-11228
rector	-11229
roitsa	-11230
tiempo	-11231
traron	-11232
zdéiev	-11233
ábamos	-11234
ámonos	-11235
éndola	-11236
éndolo	-11237
▁Ambas	-11238
▁Cerró	-11239
▁Corre	-11240
▁Debía	-11241
▁Dites	-11242
▁Empez	-11243
▁Estos	-11244
▁Luisa	-11245
▁Masha	-11246
▁Pablo	-11247
▁Petro	-11248
▁Pidió	-11249
▁Quedó	-11250
▁Quiso	-11251
▁Quizá	-11252
▁Sería	-11253
▁Tatár	-11254
▁abrig	-11255
▁abrum	-11256
▁aguda	-11257
▁ancha	-11258
▁antip	-11259
▁armen	-11260
▁avoir	-11261
▁balbu	-11262
▁barón	-11263
▁botón	-11264
▁bruma	-11265
▁bufón	-11266
▁cajón	-11267
▁cedía	-11268
▁cofia	-11269
▁comió	-11270
▁cortó	-11271
▁creas	-11272
▁decír	-11273
▁desaf	-11274
▁desol	-11275
▁diese	-11276
▁embal	-11277
▁envío	-11278
▁episo	-11279
▁escen	-11280
▁etapa	-11281
▁fatal	-11282
▁feste	-11283
▁finos	-11284
▁fruto	-11285
▁gallo	-11286
▁gimió	-11287
▁guiar	-11288
▁herir	-11289
▁incer	-11290
▁inmov	-11291
▁insom	-11292
▁itali	-11293
▁lacre	-11294
▁locos	-11295
▁lujos	-11296
▁lunar	-11297
▁malas	-11298
▁males	-11299
▁masti	-11300
▁matas	-11301
▁mecán	-11302
▁miérc	-11303
▁monum	-11304
▁mozos	-11305
▁mueca	-11306
▁paral	-11307
▁paseó	-11308
▁pegar	-11309
▁pelda	-11310
▁pesad	-11311
▁ponen	-11312
▁preca	-11313
▁prove	-11314
▁refle	-11315
▁resta	-11316
▁reves	-11317
▁revis	-11318
▁rival	-11319
▁rojos	-11320
▁sacos	-11321
▁sacra	-11322
▁salvó	-11323
▁secas	-11324
▁sensa	-11325
▁sordo	-11326
▁sufro	-11327
▁surge	-11328
▁tabla	-11329
▁temps	-11330
▁tenaz	-11331
▁vayan	-11332
▁vello	-11333
▁vengo	-11334
▁vieux	-11335
▁viuda	-11336
▁volum	-11337
▁álbum	-11338
Cuántos	-11339
Querida	-11340
astasia	-11341
athalie	-11342
cionado	-11343
dencias	-11344
eriales	-11345
ificado	-11346
parable	-11347
teridad	-11348
tiverio	-11349
ándolas	-11350
▁Abrazó	-11351
▁Espero	-11352
▁Muchas	-11353
▁Nikanó	-11354
▁Univer	-11355
▁Vestía	-11356
▁abrían	-11357
▁activo	-11358
▁actúan	-11359
▁admite	-11360
▁adoptó	-11361
▁agradó	-11362
▁ahogar	-11363
▁alcoba	-11364
▁alrede	-11365
▁alzaba	-11366
▁amarlo	-11367
▁analiz	-11368
▁armado	-11369
▁añadir	-11370
▁bajada	-11371
▁bandas	-11372
▁barbar	-11373
▁boston	-11374
▁bruces	-11375
▁cadena	-11376
▁campal	-11377
▁campan	-11378
▁casara	-11379
▁causar	-11380
▁cayera	-11381
▁cheval	-11382
▁collar	-11383
▁compas	-11384
▁concur	-11385
▁correa	-11386
▁cotidi	-11387
▁cráneo	-11388
▁cuidar	-11389
▁cárcel	-11390
▁cómico	-11391
▁darían	-11392
▁defens	-11393
▁defien	-11394
▁desves	-11395
▁diable	-11396
▁dibujó	-11397
▁duerme	-11398
▁ejerci	-11399
▁emanci	-11400
▁entier	-11401
▁equipo	-11402
▁esperó	-11403
▁estufa	-11404
▁falsos	-11405
▁fingió	-11406
▁firmar	-11407
▁frenar	-11408
▁gachas	-11409
▁ganada	-11410
▁harapi	-11411
▁ignora	-11412
▁impedi	-11413
▁incógn	-11414
▁infame	-11415
▁ingles	-11416
▁invent	-11417
▁irguió	-11418
▁jovial	-11419
▁lavado	-11420
▁limpia	-11421
▁luchan	-11422
▁madame	-11423
▁manjar	-11424
▁menuda	-11425
▁moreno	-11426
▁mortal	-11427
▁método	-11428
▁novios	-11429
▁nueces	-11430
▁obtuvo	-11431
▁ocupan	-11432
▁parole	-11433
▁parque	-11434
▁patern	-11435
▁pedazo	-11436
▁pegado	-11437
▁pernoc	-11438
▁perspe	-11439
▁querrá	-11440
▁quinta	-11441
▁quinto	-11442
▁regalo	-11443
▁reparó	-11444
▁reposo	-11445
▁revolu	-11446
▁rogado	-11447
▁rojiza	-11448
▁sacaba	-11449
▁santos	-11450
▁sienta	-11451
▁sinfín	-11452
▁sucios	-11453
▁suegro	-11454
▁sufrió	-11455
▁surgió	-11456
▁tabaco	-11457
▁tregua	-11458
iónovich	-11459
rtemberg	-11460
zamiento	-11461
▁Acababa	-11462
▁Aquiles	-11463
▁Atraves	-11464
▁Dniéper	-11465
▁Gavrilo	-11466
▁Kirsten	-11467
▁Majesté	-11468
▁Malasha	-11469
▁Mámonov	-11470
▁Pelágue	-11471
▁Serguéi	-11472
▁Siberia	-11473
▁Todavía	-11474
▁Troitsa	-11475
▁acabará	-11476
▁acordes	-11477
▁adormil	-11478
▁aislado	-11479
▁ajedrez	-11480
▁alcanza	-11481
▁aliento	-11482
▁asomaba	-11483
▁bajaban	-11484
▁barrera	-11485
▁besando	-11486
▁cacería	-11487
▁calmado	-11488
▁camisas	-11489
▁capilla	-11490
▁catorce	-11491
▁cercana	-11492
▁cercano	-11493
▁cesaron	-11494
▁chabola	-11495
▁charcos	-11496
▁chismes	-11497
▁cicatri	-11498
▁cobarde	-11499
▁colonel	-11500
▁comarca	-11501
▁comerci	-11502
▁comport	-11503
▁conocen	-11504
▁continú	-11505
▁cordero	-11506
▁cortado	-11507
▁crecido	-11508
▁creemos	-11509
▁crueles	-11510
▁cubrían	-11511
▁cumplen	-11512
▁cumplía	-11513
▁custodi	-11514
▁decirte	-11515
▁deducir	-11516
▁defecto	-11517
▁dejaría	-11518
▁delicad	-11519
▁delincu	-11520
▁deseara	-11521
▁desenva	-11522
▁deseoso	-11523
▁desvane	-11524
▁dignado	-11525
▁embelle	-11526
▁emplear	-11527
▁engaños	-11528
▁entornó	-11529
▁enviaba	-11530
▁escalof	-11531
▁estando	-11532
▁estrope	-11533
▁europeo	-11534
▁externa	-11535
▁fatigos	-11536
▁fijaron	-11537
▁formaba	-11538
▁fundían	-11539
▁furiosa	-11540
▁galería	-11541
▁garrote	-11542
▁haberle	-11543
▁haremos	-11544
▁hiciese	-11545
▁hileras	-11546
▁huellas	-11547
▁humilla	-11548
▁imponía	-11549
▁indigno	-11550
▁ingenuo	-11551
▁intento	-11552
▁jaurías	-11553
▁juzgaba	-11554
▁lealtad	-11555
▁ligeros	-11556
▁llegase	-11557
▁lograba	-11558
▁límites	-11559
▁límpido	-11560
▁maletas	-11561
▁marcial	-11562
▁mataban	-11563
▁matando	-11564
▁milagro	-11565
▁monarca	-11566
▁musical	-11567
▁máquina	-11568
▁nombrar	-11569
▁oblicua	-11570
▁ocurren	-11571
▁olvidad	-11572
▁olvides	-11573
▁ordenan	-11574
▁pasaría	-11575
▁pecados	-11576
▁perjudi	-11577
▁pillaje	-11578
▁plantas	-11579
▁presión	-11580
▁procuró	-11581
▁prosigu	-11582
▁provocó	-11583
▁queréis	-11584
▁realiza	-11585
▁resopló	-11586
▁sagrado	-11587
▁señales	-11588
▁suplico	-11589
▁teorías	-11590
▁trasera	-11591
▁tratado	-11592
▁tropezó	-11593
▁tumbado	-11594
▁turbaba	-11595
▁vigilar	-11596
▁volaban	-11597
Tonterías	-11598
iblemente	-11599
iosamente	-11600
▁Bazdéiev	-11601
▁Callaron	-11602
▁Kámenski	-11603
▁Lijachov	-11604
▁aburrida	-11605
▁acarició	-11606
▁aceptaba	-11607
▁acompañe	-11608
▁aconsejó	-11609
▁alejarse	-11610
▁anteayer	-11611
▁ardiendo	-11612
▁asomaban	-11613
▁aspiraba	-11614
▁atacaban	-11615
▁aumentar	-11616
▁avanzado	-11617
▁ayudarlo	-11618
▁buscaban	-11619
▁buscarlo	-11620
▁búsqueda	-11621
▁cargados	-11622
▁carrozas	-11623
▁castillo	-11624
▁chirriar	-11625
▁colérica	-11626
▁comisión	-11627
▁condecor	-11628
▁contacto	-11629
▁contrajo	-11630
▁contraía	-11631
▁criminal	-11632
▁criticar	-11633
▁cálculos	-11634
▁decisiva	-11635
▁defectos	-11636
▁desagrad	-11637
▁desastre	-11638
▁disponer	-11639
▁dominios	-11640
▁empleaba	-11641
▁empleado	-11642
▁encendía	-11643
▁enfadaba	-11644
▁entablar	-11645
▁enviaron	-11646
▁escapado	-11647
▁escarcha	-11648
▁escriben	-11649
▁escritor	-11650
▁escuelas	-11651
▁excitado	-11652
▁extermin	-11653
▁fatigado	-11654
▁golpeado	-11655
▁hermosos	-11656
▁impedido	-11657
▁impedían	-11658
▁importan	-11659
▁inconten	-11660
▁insultos	-11661
▁irritaba	-11662
▁jardines	-11663
▁limpieza	-11664
▁llegando	-11665
▁lloraban	-11666
▁majestad	-11667
▁malvados	-11668
▁mandaron	-11669
▁mechones	-11670
▁movieron	-11671
▁musculos	-11672
▁muselina	-11673
▁notables	-11674
▁obligada	-11675
▁ocurrirá	-11676
▁ordenaba	-11677
▁oriental	-11678
▁original	-11679
▁palmadas	-11680
▁paseando	-11681
▁pintados	-11682
▁poderoso	-11683
▁porcelan	-11684
▁portarse	-11685
▁presenci	-11686
▁presenta	-11687
▁prestaba	-11688
▁pretende	-11689
▁progreso	-11690
▁proteger	-11691
▁prudente	-11692
▁públicas	-11693
▁queridos	-11694
▁quitarle	-11695
▁quitaron	-11696
▁responde	-11697
▁resultar	-11698
▁revuelto	-11699
▁sembrado	-11700
▁sentaban	-11701
▁silbaban	-11702
▁simultán	-11703
▁sofocado	-11704
▁solemnes	-11705
▁sometida	-11706
▁suspiros	-11707
▁susurros	-11708
▁temeroso	-11709
▁universo	-11710
▁vencedor	-11711
▁virtuoso	-11712
▁viruelas	-11713
▁voluntar	-11714
▁volvería	-11715
▁vosotras	-11716
▁Pávlovich	-11717
▁Solamente	-11718
▁abstraído	-11719
▁acabarían	-11720
▁acompañar	-11721
▁admirable	-11722
▁admirando	-11723
▁agrupaban	-11724
▁alegrarse	-11725
▁alimentos	-11726
▁artesanos	-11727
▁asombrada	-11728
▁asustadas	-11729
▁audiencia	-11730
▁bastantes	-11731
▁bolsillos	-11732
▁charlaban	-11733
▁colocarse	-11734
▁compartía	-11735
▁concedido	-11736
▁conceptos	-11737
▁confirmar	-11738
▁conquista	-11739
▁continuar	-11740
▁convirtió	-11741
▁declarado	-11742
▁dedicados	-11743
▁demasiada	-11744
▁describen	-11745
▁destacaba	-11746
▁difíciles	-11747
▁disgustos	-11748
▁edificios	-11749
▁efectivos	-11750
▁elementos	-11751
▁emociones	-11752
▁empezaban	-11753
▁empezando	-11754
▁emprendió	-11755
▁empujaban	-11756
▁escondido	-11757
▁esforzaba	-11758
▁espantosa	-11759
▁estatales	-11760
▁estrechar	-11761
▁existente	-11762
▁facciones	-11763
▁femeninos	-11764
▁filosofía	-11765
▁fisonomía	-11766
▁fronteras	-11767
▁independi	-11768
▁indicaban	-11769
▁indispens	-11770
▁inmediata	-11771
▁inquietas	-11772
▁intentado	-11773
▁intercamb	-11774
▁introdujo	-11775
▁irregular	-11776
▁juramento	-11777
▁liberales	-11778
▁miércoles	-11779
▁naturales	-11780
▁ojeadores	-11781
▁oposición	-11782
▁parecidos	-11783
▁perdición	-11784
▁permitiré	-11785
▁perseguía	-11786
▁podríamos	-11787
▁populares	-11788
▁postillón	-11789
▁procedían	-11790
▁propuesto	-11791
▁prusianos	-11792
▁recogidas	-11793
▁reconstru	-11794
▁reducidos	-11795
▁referirse	-11796
▁regresaba	-11797
▁religioso	-11798
▁retiraban	-11799
▁retroceso	-11800
▁rompiendo	-11801
▁salientes	-11802
▁separando	-11803
▁sirviente	-11804
▁sujetaban	-11805
▁suscitaba	-11806
▁suscitado	-11807
▁temblaban	-11808
▁temblando	-11809
▁tendiendo	-11810
▁tinieblas	-11811
▁trabajaba	-11812
▁ágilmente	-11813
Yaroslávets	-11814
▁Permanecía	-11815
▁Semiónovna	-11816
▁abnegación	-11817
▁abundantes	-11818
▁aseguraban	-11819
▁asombrados	-11820
▁atractivos	-11821
▁bondadosos	-11822
▁capturados	-11823
▁cautiverio	-11824
▁centinelas	-11825
▁compadezco	-11826
▁concederle	-11827
▁conmovedor	-11828
▁constantes	-11829
▁contestado	-11830
▁decidieron	-11831
▁delegación	-11832
▁descansaba	-11833
▁desfilaban	-11834
▁desfilaron	-11835
▁determinar	-11836
▁dignatario	-11837
▁dirigiendo	-11838
▁domésticos	-11839
▁dormitorio	-11840
▁enamorados	-11841
▁enardecido	-11842
▁entornados	-11843
▁entretener	-11844
▁escondidas	-11845
▁escritores	-11846
▁estallaron	-11847
▁exposición	-11848
▁expresarse	-11849
▁genialidad	-11850
▁graduación	-11851
▁guerrillas	-11852
▁históricas	-11853
▁humillante	-11854
▁indulgente	-11855
▁informarse	-11856
▁intervalos	-11857
▁libremente	-11858
▁llegaremos	-11859
▁objeciones	-11860
▁periódicos	-11861
▁posteridad	-11862
▁preparadas	-11863
▁procuraban	-11864
▁proporción	-11865
▁religiosos	-11866
▁representa	-11867
▁resolución	-11868
▁respetable	-11869
▁resultante	-11870
▁sacerdotes	-11871
▁sentándose	-11872
▁trabajaban	-11873
▁transformó	-11874
▁Drubetskaia	-11875
▁abatimiento	-11876
▁abstracción	-11877
▁almohadones	-11878
▁alrededores	-11879
▁calamidades	-11880
▁casualmente	-11881
▁complicadas	-11882
▁conseguirlo	-11883
▁considerado	-11884
▁convencerse	-11885
▁conversaban	-11886
▁debilidades	-11887
▁demostrando	-11888
▁descripción	-11889
▁despertarlo	-11890
▁dispersaron	-11891
▁distinguido	-11892
▁distracción	-11893
▁estupideces	-11894
▁frecuentaba	-11895
▁fuertemente	-11896
▁físicamente	-11897
▁gobernadora	-11898
▁inadvertido	-11899
▁inquietarse	-11900
▁ochocientos	-11901
▁oportunidad	-11902
▁precedentes	-11903
▁presentaban	-11904
▁reprobación	-11905
▁seiscientos	-11906
▁suficientes	-11907
▁tranquilizó	-11908
▁trescientos	-11909
▁universales	-11910
▁Ilariónovich	-11911
▁Nikanórovich	-11912
▁coincidencia	-11913
▁comprendiera	-11914
▁construcción	-11915
▁descendieron	-11916
▁desgraciados	-11917
▁diplomáticas	-11918
▁gentilhombre	-11919
▁insoportable	-11920
▁interesantes	-11921
▁interrogante	-11922
▁interrupción	-11923
▁involuntaria	-11924
▁involuntario	-11925
▁personalidad	-11926
▁petersburgue	-11927
▁relacionados	-11928
▁resplandecía	-11929
▁subordinados	-11930
▁vacilaciones	-11931
▁veinticuatro	-11932
▁Pelágueiushka	-11933
▁acostumbrados	-11934
▁consideración	-11935
▁fatigosamente	-11936
▁incertidumbre	-11937
▁interrogativo	-11938
▁representaban	-11939
▁comportamiento	-11940
▁detalladamente	-11941
▁reconciliación	-11942
▁afirmativamente	-11943
.,	-11944
Ap	-11945
IV	-11946
ff	-11947
fé	-11948
ix	-11949
ky	-11950
là	-11951
ns	-11952
ív	-11953
Dad	-11954
Haz	-11955
Iré	-11956
Mis	-11957
Pro	-11958
Sal	-11959
Ves	-11960
Vis	-11961
bio	-11962
cat	-11963
cht	-11964
dam	-11965
edu	-11966
ere	-11967
err	-11968
esp	-11969
flu	-11970
has	-11971
izó	-11972
jal	-11973
lau	-11974
leo	-11975
lga	-11976
liu	-11977
ova	-11978
pin	-11979
pir	-11980
pli	-11981
sch	-11982
sha	-11983
tea	-11984
ulo	-11985
usk	-11986
uta	-11987
uvé	-11988
yal	-11989
ées	-11990
ídi	-11991
íto	-11992
óma	-11993
▁Ay	-11994
▁Da	-11995
▁Ea	-11996
▁Fí	-11997
▁Tr	-11998
▁bi	-11999
▁eu	-12000
▁lú	-12001
▁pí	-12002
Ayer	-12003
Diga	-12004
Dime	-12005
Déje	-12006
Nous	-12007
alab	-12008
amás	-12009
anca	-12010
anci	-12011
andó	-12012
anti	-12013
ardó	-12014
atas	-12015
atia	-12016
bran	-12017
chau	-12018
cigu	-12019
cumb	-12020
dase	-12021
dele	-12022
doso	-12023
enjo	-12024
furt	-12025
heur	-12026
igna	-12027
inan	-12028
ires	-12029
ière	-12030
lons	-12031
mbra	-12032
mela	-12033
mese	-12034
nado	-12035
nato	-12036
ombo	-12037
onne	-12038
piró	-12039
quer	-12040
rara	-12041
tage	-12042
teca	-12043
teur	-12044
tiga	-12045
timi	-12046
tito	-12047
tono	-12048
turb	-12049
umov	-12050
umía	-12051
utas	-12052
▁Arj	-12053
▁Bro	-12054
▁Col	-12055
▁Dir	-12056
▁Fed	-12057
▁Fin	-12058
▁Haz	-12059
▁Mam	-12060
▁Mol	-12061
▁Muy	-12062
▁Nar	-12063
▁Náp	-12064
▁Rep	-12065
▁Sab	-12066
▁Vis	-12067
▁ase	-12068
▁ayu	-12069
▁bib	-12070
▁bil	-12071
▁boy	-12072
▁ced	-12073
▁cib	-12074
▁coe	-12075
▁cás	-12076
▁fab	-12077
▁fat	-12078
▁fic	-12079
▁gre	-12080
▁gua	-12081
▁ici	-12082
▁inc	-12083
▁jac	-12084
▁lon	-12085
▁láp	-12086
▁mús	-12087
▁pés	-12088
▁píl	-12089
▁rad	-12090
▁reh	-12091
▁sex	-12092
▁sou	-12093
▁sáb	-12094
▁tol	-12095
▁trá	-12096
▁tum	-12097
▁vej	-12098
▁águ	-12099
Antes	-12100
Borís	-12101
Encan	-12102
Excel	-12103
María	-12104
Mirad	-12105
Multa	-12106
Vengo	-12107
abeto	-12108
alter	-12109
andre	-12110
bourg	-12111
cenes	-12112
chera	-12113
chkov	-12114
cidez	-12115
cinco	-12116
cipes	-12117
cisie	-12118
colía	-12119
dades	-12120
daron	-12121
elles	-12122
facto	-12123
ficas	-12124
ganos	-12125
grama	-12126
hurra	-12127
icios	-12128
ienso	-12129
ienta	-12130
ionar	-12131
ishka	-12132
jarlo	-12133
jarme	-12134
kvore	-12135
lamos	-12136
laran	-12137
lidos	-12138
loque	-12139
meros	-12140
minos	-12141
moron	-12142
olvía	-12143
ondar	-12144
perim	-12145
quias	-12146
rarle	-12147
riera	-12148
rique	-12149
sible	-12150
tenta	-12151
tista	-12152
todos	-12153
ubert	-12154
udado	-12155
undir	-12156
usted	-12157
vador	-12158
éizar	-12159
était	-12160
ímica	-12161
ñados	-12162
ómago	-12163
údame	-12164
▁Avan	-12165
▁Bajó	-12166
▁Bedu	-12167
▁Besó	-12168
▁Cuer	-12169
▁Debo	-12170
▁Dejó	-12171
▁Enns	-12172
▁Haré	-12173
▁Iver	-12174
▁Mire	-12175
▁Pult	-12176
▁Sonó	-12177
▁Tran	-12178
▁abul	-12179
▁acha	-12180
▁afán	-12181
▁arco	-12182
▁arpa	-12183
▁artí	-12184
▁bola	-12185
▁brío	-12186
▁cero	-12187
▁copi	-12188
▁coto	-12189
▁crea	-12190
▁cris	-12191
▁desv	-12192
▁donn	-12193
▁elog	-12194
▁esti	-12195
▁font	-12196
▁frív	-12197
▁hues	-12198
▁hura	-12199
▁inco	-12200
▁irgu	-12201
▁iría	-12202
▁jour	-12203
▁lamp	-12204
▁mace	-12205
▁mayo	-12206
▁mort	-12207
▁mots	-12208
▁muel	-12209
▁noci	-12210
▁nouv	-12211
▁octa	-12212
▁pade	-12213
▁pago	-12214
▁palo	-12215
▁peur	-12216
▁pica	-12217
▁pied	-12218
▁piti	-12219
▁posi	-12220
▁pulm	-12221
▁raso	-12222
▁raya	-12223
▁rece	-12224
▁ríos	-12225
▁sais	-12226
▁sait	-12227
▁soir	-12228
▁temo	-12229
▁titu	-12230
▁tour	-12231
▁tril	-12232
▁veis	-12233
▁veré	-12234
▁vice	-12235
▁voit	-12236
▁zapa	-12237
Buenas	-12238
Conoce	-12239
Déjalo	-12240
Dígame	-12241
Fíjate	-12242
Vasili	-12243
abeles	-12244
cesión	-12245
chárov	-12246
cieran	-12247
cierto	-12248
cribió	-12249
cripto	-12250
culaba	-12251
edores	-12252
ensión	-12253
ficier	-12254
iernes	-12255
igneur	-12256
ischau	-12257
izaban	-12258
lancol	-12259
onados	-12260
ponder	-12261
stedes	-12262
tiende	-12263
tillos	-12264
tramos	-12265
umbres	-12266
urados	-12267
urando	-12268
venido	-12269
íncipe	-12270
▁Calló	-12271
▁Caula	-12272
▁Fedia	-12273
▁Hemos	-12274
▁Ilich	-12275
▁Menos	-12276
▁Olvid	-12277
▁Otras	-12278
▁Penza	-12279
▁Procu	-12280
▁Russe	-12281
▁Sergu	-12282
▁Somos	-12283
▁Suiza	-12284
▁Tales	-12285
▁Votre	-12286
▁abrup	-12287
▁acoge	-12288
▁adent	-12289
▁afici	-12290
▁aguas	-12291
▁alarg	-12292
▁aline	-12293
▁alist	-12294
▁alisó	-12295
▁almas	-12296
▁animó	-12297
▁atado	-12298
▁audaz	-12299
▁batir	-12300
▁bendi	-12301
▁besos	-12302
▁caiga	-12303
▁calla	-12304
▁calmó	-12305
▁cartu	-12306
▁casco	-12307
▁cases	-12308
▁cenas	-12309
▁cobar	-12310
▁cobró	-12311
▁copas	-12312
▁costó	-12313
▁crece	-12314
▁crepi	-12315
▁danza	-12316
▁darte	-12317
▁decre	-12318
▁depar	-12319
▁depor	-12320
▁edifi	-12321
▁eleva	-12322
▁emerg	-12323
▁empie	-12324
▁enero	-12325
▁engor	-12326
▁espan	-12327
▁excep	-12328
▁fuero	-12329
▁funda	-12330
▁furia	-12331
▁fábri	-12332
▁garan	-12333
▁giran	-12334
▁gozar	-12335
▁harán	-12336
▁hirió	-12337
▁indec	-12338
▁infam	-12339
▁infun	-12340
▁isbas	-12341
▁juzga	-12342
▁llora	-12343
▁mande	-12344
▁mante	-12345
▁marzo	-12346
▁metro	-12347
▁modos	-12348
▁nuera	-12349
▁oscil	-12350
▁palma	-12351
▁parto	-12352
▁partí	-12353
▁pavor	-12354
▁pelea	-12355
▁petri	-12356
▁plazo	-12357
▁point	-12358
▁ponga	-12359
▁prést	-12360
▁puños	-12361
▁recam	-12362
▁recta	-12363
▁recti	-12364
▁repas	-12365
▁reten	-12366
▁risue	-12367
▁rodea	-12368
▁rogar	-12369
▁rublo	-12370
▁señas	-12371
▁siega	-12372
▁signo	-12373
▁silue	-12374
▁suavi	-12375
▁subra	-12376
▁sépti	-12377
▁tibio	-12378
▁trato	-12379
▁turbó	-12380
▁unían	-12381
▁valía	-12382
▁vapor	-12383
▁venas	-12384
▁venda	-12385
▁ville	-12386
Conozco	-12387
Cuántas	-12388
Escucha	-12389
Serguéi	-12390
ariable	-12391
cionada	-12392
cisiete	-12393
continu	-12394
culando	-12395
cultura	-12396
garemos	-12397
gándole	-12398
incourt	-12399
iéntate	-12400
lioteca	-12401
lónnaia	-12402
oráneos	-12403
parecía	-12404
rimonio	-12405
usieron	-12406
véievna	-12407
zándola	-12408
▁Erfurt	-12409
▁España	-12410
▁Genlis	-12411
▁Ignáti	-12412
▁Mishka	-12413
▁Narish	-12414
▁Parece	-12415
▁Prusse	-12416
▁Siguió	-12417
▁Tenían	-12418
▁acepto	-12419
▁adelga	-12420
▁ademán	-12421
▁adorme	-12422
▁adueñó	-12423
▁agujas	-12424
▁ajenjo	-12425
▁ajenos	-12426
▁ajustó	-12427
▁alegra	-12428
▁anchos	-12429
▁anduvo	-12430
▁ardido	-12431
▁astuto	-12432
▁asumir	-12433
▁atrevi	-12434
▁bajado	-12435
▁bajeza	-12436
▁baraja	-12437
▁barand	-12438
▁besado	-12439
▁biombo	-12440
▁blasfe	-12441
▁borrar	-12442
▁candel	-12443
▁cargar	-12444
▁ceñido	-12445
▁circul	-12446
▁cobrar	-12447
▁cocina	-12448
▁commen	-12449
▁confer	-12450
▁confid	-12451
▁conjun	-12452
▁contor	-12453
▁conyug	-12454
▁corcho	-12455
▁crujir	-12456
▁cuadra	-12457
▁cuadro	-12458
▁cómodo	-12459
▁decide	-12460
▁declam	-12461
▁deform	-12462
▁delito	-12463
▁deriva	-12464
▁dichos	-12465
▁diminu	-12466
▁donner	-12467
▁délici	-12468
▁engran	-12469
▁enseñó	-12470
▁ensill	-12471
▁entonó	-12472
▁espesa	-12473
▁estorb	-12474
▁estuvi	-12475
▁exacta	-12476
▁exager	-12477
▁explor	-12478
▁extenu	-12479
▁falsas	-12480
▁fijada	-12481
▁fingía	-12482
▁franco	-12483
▁fresca	-12484
▁fundam	-12485
▁furgón	-12486
▁gobier	-12487
▁gradas	-12488
▁grupas	-12489
▁guardi	-12490
▁gustan	-12491
▁hacéis	-12492
▁harina	-12493
▁hazaña	-12494
▁huella	-12495
▁huesos	-12496
▁hundía	-12497
▁imitar	-12498
▁inició	-12499
▁jueves	-12500
▁leerlo	-12501
▁limpió	-12502
▁linter	-12503
▁látigo	-12504
▁mandos	-12505
▁marino	-12506
▁mordis	-12507
▁mármol	-12508
▁negado	-12509
▁notado	-12510
▁ordeno	-12511
▁otoñal	-12512
▁pagaré	-12513
▁parado	-12514
▁pasaje	-12515
▁pereza	-12516
▁perver	-12517
▁picado	-12518
▁ponían	-12519
▁practi	-12520
▁presun	-12521
▁public	-12522
▁quieto	-12523
▁rancho	-12524
▁reanim	-12525
▁reclam	-12526
▁recobr	-12527
▁reduce	-12528
▁rencor	-12529
▁resign	-12530
▁revoir	-12531
▁serios	-12532
▁sirven	-12533
▁sobren	-12534
▁sonoro	-12535
▁subido	-12536
▁sucias	-12537
▁tardes	-12538
▁tontos	-12539
▁torpes	-12540
▁toutes	-12541
▁trueno	-12542
▁vacías	-12543
▁variar	-12544
▁vernos	-12545
▁vicios	-12546
▁vistió	-12547
▁ágiles	-12548
▁águila	-12549
dolencia	-12550
ensiones	-12551
oriremos	-12552
parición	-12553
▁Algunas	-12554
▁Arjárov	-12555
▁Beduino	-12556
▁Comenzó	-12557
▁Diríase	-12558
▁Experim	-12559
▁Grachik	-12560
▁Inesper	-12561
▁Iverisk	-12562
▁Laurist	-12563
▁Levantó	-12564
▁Llegado	-12565
▁Mortier	-12566
▁Nápoles	-12567
▁Pultusk	-12568
▁Quieren	-12569
▁Schmidt	-12570
▁Suspiró	-12571
▁Tolstói	-12572
▁Tuchkov	-12573
▁abarcar	-12574
▁accesos	-12575
▁admirar	-12576
▁adorado	-12577
▁affaire	-12578
▁afirman	-12579
▁afirmar	-12580
▁ahogaba	-12581
▁alojaba	-12582
▁alterna	-12583
▁amables	-12584
▁amantes	-12585
▁andaban	-12586
▁andando	-12587
▁apacigu	-12588
▁apresar	-12589
▁armenia	-12590
▁asegura	-12591
▁asombra	-12592
▁astilla	-12593
▁atraída	-12594
▁atraído	-12595
▁atribuy	-12596
▁avanzan	-12597
▁ayudaba	-12598
▁ayudado	-12599
▁balbuce	-12600
▁brindis	-12601
▁cajones	-12602
▁castiga	-12603
▁cayendo	-12604
▁certeza	-12605
▁cintura	-12606
▁cochera	-12607
▁colgaba	-12608
▁comment	-12609
▁conoció	-12610
▁cosecha	-12611
▁creerme	-12612
▁creyera	-12613
▁crítica	-12614
▁cálidos	-12615
▁decimos	-12616
▁dejaran	-12617
▁deliber	-12618
▁demande	-12619
▁desembo	-12620
▁diestro	-12621
▁dormida	-12622
▁echando	-12623
▁edredón	-12624
▁egoísmo	-12625
▁electri	-12626
▁elevada	-12627
▁encargo	-12628
▁encargó	-12629
▁engañan	-12630
▁enseres	-12631
▁entrega	-12632
▁escoces	-12633
▁estéril	-12634
▁experto	-12635
▁fundado	-12636
▁hablara	-12637
▁hablaré	-12638
▁herrero	-12639
▁honesto	-12640
▁humedad	-12641
▁hábitos	-12642
▁imagina	-12643
▁indigna	-12644
▁influir	-12645
▁ingenio	-12646
▁inmenso	-12647
▁inquisi	-12648
▁invadió	-12649
▁investi	-12650
▁jugaban	-12651
▁jugador	-12652
▁lamento	-12653
▁lejanas	-12654
▁levanta	-12655
▁llegará	-12656
▁matinal	-12657
▁mejorar	-12658
▁mencion	-12659
▁mensaje	-12660
▁modales	-12661
▁molesta	-12662
▁monedas	-12663
▁muelles	-12664
▁mundana	-12665
▁músicos	-12666
▁narices	-12667
▁negarse	-12668
▁niñeras	-12669
▁notando	-12670
▁oficios	-12671
▁paradas	-12672
▁pasados	-12673
▁peinada	-12674
▁pesados	-12675
▁pidiera	-12676
▁pisadas	-12677
▁posadas	-12678
▁páginas	-12679
▁pájaros	-12680
▁quitaba	-12681
▁razonar	-12682
▁reanudó	-12683
▁rebasar	-12684
▁recurso	-12685
▁repente	-12686
▁retenía	-12687
▁retraso	-12688
▁revelar	-12689
▁rivales	-12690
▁robusto	-12691
▁rápidas	-12692
▁sección	-12693
▁senador	-12694
▁seniles	-12695
▁sentida	-12696
▁siervos	-12697
▁sonaban	-12698
▁sublime	-12699
▁sudoros	-12700
▁talones	-12701
▁tendrán	-12702
▁testigo	-12703
▁tortuga	-12704
▁trascen	-12705
▁tártaro	-12706
▁unieron	-12707
▁uniform	-12708
▁veloces	-12709
▁vendada	-12710
▁vuelven	-12711
Bonaparte	-12712
Encantado	-12713
esucristo	-12714
liuchárov	-12715
▁Borbones	-12716
▁Golitsin	-12717
▁Imperial	-12718
▁Nastasia	-12719
▁Nosotros	-12720
▁Salvador	-12721
▁Savélich	-12722
▁Valúievo	-12723
▁acabaron	-12724
▁aceptado	-12725
▁acompaña	-12726
▁aconsejo	-12727
▁admisión	-12728
▁admitido	-12729
▁adoptado	-12730
▁adueñado	-12731
▁afeitado	-12732
▁agilidad	-12733
▁alboroto	-12734
▁alféizar	-12735
▁alterada	-12736
▁altozano	-12737
▁amenazar	-12738
▁amistoso	-12739
▁ancianos	-12740
▁anunciar	-12741
▁aprobaba	-12742
▁arrancar	-12743
▁arrepent	-12744
▁asustaba	-12745
▁barbarie	-12746
▁barracas	-12747
▁bastaría	-12748
▁bayoneta	-12749
▁bizcocho	-12750
▁bromista	-12751
▁brotaban	-12752
▁cabecera	-12753
▁calzados	-12754
▁cambiaba	-12755
▁cantaban	-12756
▁cerrarse	-12757
▁cibelina	-12758
▁cohibido	-12759
▁combates	-12760
▁comercio	-12761
▁compacta	-12762
▁concreto	-12763
▁confiada	-12764
▁contarlo	-12765
▁contaron	-12766
▁correcto	-12767
▁corregir	-12768
▁creencia	-12769
▁creyeron	-12770
▁cuadrado	-12771
▁delgadas	-12772
▁descarga	-12773
▁descubri	-12774
▁desengan	-12775
▁desierta	-12776
▁desigual	-12777
▁desmoron	-12778
▁despacio	-12779
▁detienen	-12780
▁distraer	-12781
▁dolorido	-12782
▁dormidos	-12783
▁encargos	-12784
▁encender	-12785
▁enseñaba	-12786
▁enseñaré	-12787
▁enterado	-12788
▁episodio	-12789
▁estación	-12790
▁estrella	-12791
▁estómago	-12792
▁europeos	-12793
▁exaltada	-12794
▁excesivo	-12795
▁expulsar	-12796
▁febriles	-12797
▁gallardo	-12798
▁generoso	-12799
▁geniales	-12800
▁gigantes	-12801
▁gracioso	-12802
▁gratitud	-12803
▁haberlas	-12804
▁hablamos	-12805
▁hablaría	-12806
▁herencia	-12807
▁hundidos	-12808
▁impenetr	-12809
▁injurias	-12810
▁interesó	-12811
▁iracunda	-12812
▁irritada	-12813
▁irrumpió	-12814
▁jornadas	-12815
▁juntaron	-12816
▁lamentos	-12817
▁lanzando	-12818
▁legítimo	-12819
▁limitada	-12820
▁mantiene	-12821
▁montados	-12822
▁mélancol	-12823
▁negocios	-12824
▁obstante	-12825
▁ocupados	-12826
▁ofensivo	-12827
▁olvidada	-12828
▁oponerse	-12829
▁paisanos	-12830
▁pensaron	-12831
▁perspica	-12832
▁pregunte	-12833
▁producir	-12834
▁proponer	-12835
▁provecho	-12836
▁pusieran	-12837
▁píldoras	-12838
▁quedarme	-12839
▁quehacer	-12840
▁queremos	-12841
▁recurrir	-12842
▁respecta	-12843
▁reunidas	-12844
▁revelaba	-12845
▁rezagado	-12846
▁sacudida	-12847
▁saliendo	-12848
▁salvarlo	-12849
▁saqueada	-12850
▁secretas	-12851
▁separada	-12852
▁señalaba	-12853
▁singular	-12854
▁soberano	-12855
▁sonrisas	-12856
▁súbditos	-12857
▁súplicas	-12858
▁tardaría	-12859
▁temerosa	-12860
▁terrenos	-12861
▁trajeran	-12862
▁tratarla	-12863
▁trataron	-12864
▁trayecto	-12865
▁términos	-12866
▁violenta	-12867
▁zancadas	-12868
abilidades	-12869
fectamente	-12870
inadamente	-12871
▁Cualquier	-12872
▁Matriosha	-12873
▁Terminada	-12874
▁abandonan	-12875
▁acordarse	-12876
▁advertido	-12877
▁afirmaban	-12878
▁afirmando	-12879
▁agradaban	-12880
▁agradecer	-12881
▁alcanzaba	-12882
▁alcanzado	-12883
▁almacenes	-12884
▁almohadas	-12885
▁antipatía	-12886
▁apretaban	-12887
▁apreturas	-12888
▁arriesgar	-12889
▁arrogante	-12890
▁arrugando	-12891
▁asaltaban	-12892
▁atreverse	-12893
▁bagatelas	-12894
▁bromeando	-12895
▁capturado	-12896
▁carraspeó	-12897
▁castigado	-12898
▁coincidía	-12899
▁coléricos	-12900
▁compuesta	-12901
▁compuesto	-12902
▁conducían	-12903
▁cotidiana	-12904
▁delicados	-12905
▁derrotado	-12906
▁descendió	-12907
▁despedida	-12908
▁destierro	-12909
▁detuviera	-12910
▁diamantes	-12911
▁dirigiera	-12912
▁dirigirle	-12913
▁disimular	-12914
▁diversión	-12915
▁echándose	-12916
▁económica	-12917
▁elocuente	-12918
▁empolvado	-12919
▁enfermizo	-12920
▁enérgicos	-12921
▁escenario	-12922
▁escondite	-12923
▁espantoso	-12924
▁estamento	-12925
▁estampido	-12926
▁exigencia	-12927
▁favorable	-12928
▁femeninas	-12929
▁fielmente	-12930
▁fortaleza	-12931
▁francache	-12932
▁fruncidas	-12933
▁herederas	-12934
▁inclinada	-12935
▁infinitas	-12936
▁ingenioso	-12937
▁inminente	-12938
▁inmutable	-12939
▁insoluble	-12940
▁instalado	-12941
▁inventado	-12942
▁magnífica	-12943
▁medicinas	-12944
▁meditando	-12945
▁misterios	-12946
▁molestaba	-12947
▁necesitan	-12948
▁novedades	-12949
▁obligaron	-12950
▁ocurriera	-12951
▁ofensivas	-12952
▁perdiendo	-12953
▁perdóneme	-12954
▁permitían	-12955
▁permítame	-12956
▁políticas	-12957
▁porcelana	-12958
▁precipitó	-12959
▁preferida	-12960
▁preparara	-12961
▁profundas	-12962
▁proseguía	-12963
▁prudencia	-12964
▁príncipes	-12965
▁radiantes	-12966
▁rechazaba	-12967
▁recompens	-12968
▁recordado	-12969
▁reflexión	-12970
▁rescripto	-12971
▁reservada	-12972
▁saludaron	-12973
▁seductora	-12974
▁sencillos	-12975
▁sofocante	-12976
▁sostenían	-12977
▁sucediera	-12978
▁suplicaba	-12979
▁susurraba	-12980
▁temblaron	-12981
▁tendencia	-12982
▁tentación	-12983
▁terminara	-12984
▁ventajosa	-12985
▁viceversa	-12986
▁viejecita	-12987
▁Poklónnaia	-12988
▁Revolución	-12989
▁acompañara	-12990
▁agradecido	-12991
▁aguardaban	-12992
▁anunciando	-12993
▁aplicación	-12994
▁bailarines	-12995
▁biblioteca	-12996
▁cascabeles	-12997
▁circasiano	-12998
▁confirmada	-12999
▁confundían	-13000
▁constituía	-13001
▁contrarias	-13002
▁cumpleaños	-13003
▁delicadeza	-13004
▁demostrado	-13005
▁demuestran	-13006
▁diciéndose	-13007
▁diecisiete	-13008
▁diligencia	-13009
▁dispuestas	-13010
▁distinguió	-13011
▁dulcemente	-13012
▁embarazoso	-13013
▁entendiera	-13014
▁entornando	-13015
▁entregaron	-13016
▁espléndido	-13017
▁espontánea	-13018
▁exaltación	-13019
▁explicando	-13020
▁frotándose	-13021
▁fundamento	-13022
▁impulsaban	-13023
▁informarlo	-13024
▁iniciativa	-13025
▁injusticia	-13026
▁inspección	-13027
▁interceder	-13028
▁interrogar	-13029
▁invariable	-13030
▁levantados	-13031
▁liberación	-13032
▁melancolía	-13033
▁negligente	-13034
▁obediencia	-13035
▁participan	-13036
▁pasatiempo	-13037
▁pendientes	-13038
▁perfeccion	-13039
▁pertenecer	-13040
▁peticiones	-13041
▁predilecto	-13042
▁preparados	-13043
▁produciría	-13044
▁reflejaban	-13045
▁renovación	-13046
▁resultaban	-13047
▁ruborizada	-13048
▁ruborizado	-13049
▁tembloroso	-13050
▁tentativas	-13051
▁terminaban	-13052
▁transfiere	-13053
▁vacilantes	-13054
▁visitarlos	-13055
antáneamente	-13056
▁Providencia	-13057
▁Vasílievich	-13058
▁adelantarse	-13059
▁apresuraban	-13060
▁apresuraron	-13061
▁atormentado	-13062
▁cabalgadura	-13063
▁chapoteando	-13064
▁comprensión	-13065
▁confirmaban	-13066
▁conmovedora	-13067
▁conseguiría	-13068
▁continuaban	-13069
▁contradecía	-13070
▁desfigurado	-13071
▁despertando	-13072
▁direcciones	-13073
▁encontramos	-13074
▁felicitarlo	-13075
▁fraternidad	-13076
▁gravitación	-13077
▁harapientos	-13078
▁horrorizaba	-13079
▁incapacidad	-13080
▁inmovilidad	-13081
▁melancólico	-13082
▁napoleónico	-13083
▁necesitaban	-13084
▁obstinación	-13085
▁participado	-13086
▁preceptores	-13087
▁preocupaban	-13088
▁privaciones	-13089
▁reglamentos	-13090
▁relacionado	-13091
▁reprimiendo	-13092
▁retrocedido	-13093
▁sorprendida	-13094
▁sujetándolo	-13095
▁temblorosos	-13096
▁tentaciones	-13097
▁tiernamente	-13098
▁tradiciones	-13099
▁veinticinco	-13100
▁Caulaincourt	-13101
▁Precisamente	-13102
▁Serguéievich	-13103
▁aburrimiento	-13104
▁afirmaciones	-13105
▁amenazándolo	-13106
▁anunciándole	-13107
▁atormentaban	-13108
▁atrevimiento	-13109
▁convencional	-13110
▁convicciones	-13111
▁desaparición	-13112
▁descubrieron	-13113
▁desesperados	-13114
▁desorbitados	-13115
▁electricidad	-13116
▁ensordecedor	-13117
▁entusiasmado	-13118
▁experiencias	-13119
▁extrañamente	-13120
▁forzadamente	-13121
▁incalculable	-13122
▁inexplicable	-13123
▁inexpresivos	-13124
▁malentendido	-13125
▁obligaciones	-13126
▁organización	-13127
▁palideciendo	-13128
▁preparándose	-13129
▁reflexionaba	-13130
▁resplandeció	-13131
▁respondieron	-13132
▁rítmicamente	-13133
▁Experimentaba	-13134
▁amistosamente	-13135
▁efectivamente	-13136
▁fortificación	-13137
▁inconveniente	-13138
▁informaciones	-13139
▁negativamente	-13140
▁precipitación	-13141
▁remordimiento	-13142
▁significativo	-13143
▁terrateniente	-13144
▁violentamente	-13145
▁contemporáneos	-13146
▁descomposición	-13147
▁felicitaciones	-13148
▁lastimeramente	-13149
▁parlamentarios	-13150
▁Inesperadamente	-13151
▁contradictorias	-13152
▁despreocupación	-13153
▁extraordinarias	-13154
▁inevitablemente	-13155
▁justificaciones	-13156
▁momentáneamente	-13157
▁voluntariamente	-13158
11	-13159
Ca	-13160
Uf	-13161
hl	-13162
ok	-13163
ot	-13164
só	-13165
ty	-13166
ég	-13167
óm	-13168
ót	-13169
▁í	-13170
Del	-13171
Emp	-13172
III	-13173
Llé	-13174
Már	-13175
Sch	-13176
Sol	-13177
abv	-13178
bro	-13179
chu	-13180
cra	-13181
cua	-13182
cée	-13183
dat	-13184
dob	-13185
feo	-13186
fix	-13187
ful	-13188
gré	-13189
hen	-13190
hie	-13191
hor	-13192
ice	-13193
idi	-13194
igú	-13195
imp	-13196
iov	-13197
jor	-13198
jín	-13199
lap	-13200
ley	-13201
lia	-13202
met	-13203
mul	-13204
nin	-13205
oub	-13206
ppi	-13207
rai	-13208
run	-13209
río	-13210
smo	-13211
teó	-13212
tit	-13213
tom	-13214
tru	-13215
zgo	-13216
zor	-13217
ímo	-13218
▁(“	-13219
▁Af	-13220
▁Aj	-13221
▁Eh	-13222
▁Ek	-13223
▁Fé	-13224
▁Ho	-13225
▁Ju	-13226
▁Sú	-13227
▁có	-13228
▁ef	-13229
▁ou	-13230
▁pé	-13231
▁uf	-13232
▁ás	-13233
▁át	-13234
Char	-13235
Creí	-13236
Deci	-13237
Dieu	-13238
Digo	-13239
Entr	-13240
Este	-13241
Mary	-13242
Perd	-13243
Tito	-13244
Tres	-13245
abos	-13246
affa	-13247
alén	-13248
anda	-13249
andr	-13250
aras	-13251
bajo	-13252
bedr	-13253
bund	-13254
cans	-13255
cejo	-13256
cern	-13257
chín	-13258
chón	-13259
cord	-13260
cran	-13261
cúch	-13262
dern	-13263
desa	-13264
deza	-13265
dijo	-13266
dome	-13267
ecen	-13268
ense	-13269
erus	-13270
esas	-13271
evna	-13272
flex	-13273
grar	-13274
guar	-13275
guas	-13276
gura	-13277
iduo	-13278
ikov	-13279
imen	-13280
irán	-13281
ises	-13282
isse	-13283
jalá	-13284
lait	-13285
land	-13286
lano	-13287
late	-13288
lero	-13289
mada	-13290
oire	-13291
omin	-13292
oral	-13293
orte	-13294
orzh	-13295
osíl	-13296
pade	-13297
pase	-13298
petu	-13299
prob	-13300
queó	-13301
qués	-13302
raig	-13303
rand	-13304
reau	-13305
rena	-13306
rich	-13307
riel	-13308
rona	-13309
roso	-13310
sela	-13311
sian	-13312
sine	-13313
sist	-13314
stad	-13315
tard	-13316
tese	-13317
tina	-13318
tine	-13319
toli	-13320
tosa	-13321
ttre	-13322
tudo	-13323
ueve	-13324
ulez	-13325
unfu	-13326
unot	-13327
uton	-13328
vait	-13329
vízh	-13330
ylau	-13331
élli	-13332
ésta	-13333
▁Ali	-13334
▁Apo	-13335
▁Bus	-13336
▁Cés	-13337
▁Die	-13338
▁Fre	-13339
▁Kur	-13340
▁Man	-13341
▁Mir	-13342
▁Non	-13343
▁Reg	-13344
▁Rin	-13345
▁Sta	-13346
▁Tri	-13347
▁Zúb	-13348
▁ace	-13349
▁aco	-13350
▁afi	-13351
▁aga	-13352
▁aim	-13353
▁arr	-13354
▁aso	-13355
▁ati	-13356
▁bea	-13357
▁bum	-13358
▁clé	-13359
▁enm	-13360
▁feo	-13361
▁geo	-13362
▁idi	-13363
▁ini	-13364
▁pic	-13365
▁pár	-13366
▁rib	-13367
▁rot	-13368
▁rés	-13369
▁sar	-13370
▁sch	-13371
▁tam	-13372
▁vor	-13373
Amigo	-13374
Ellos	-13375
Entre	-13376
Merci	-13377
Petia	-13378
Podía	-13379
Tenga	-13380
Votre	-13381
adera	-13382
ardos	-13383
arían	-13384
atita	-13385
cable	-13386
cador	-13387
camos	-13388
cedió	-13389
chosa	-13390
cidió	-13391
cioso	-13392
comod	-13393
crito	-13394
curso	-13395
decin	-13396
derlo	-13397
doles	-13398
driza	-13399
duras	-13400
enció	-13401
ensos	-13402
ervan	-13403
fermo	-13404
gable	-13405
gicas	-13406
hemia	-13407
henka	-13408
iaban	-13409
iguar	-13410
inovo	-13411
jaría	-13412
jeras	-13413
jeres	-13414
larlo	-13415
letas	-13416
levar	-13417
mulos	-13418
nadie	-13419
ompon	-13420
orama	-13421
ordre	-13422
ovski	-13423
percu	-13424
pilas	-13425
ppich	-13426
proch	-13427
rigió	-13428
sobre	-13429
stico	-13430
taire	-13431
tasen	-13432
tañas	-13433
teada	-13434
testo	-13435
tiagu	-13436
titsa	-13437
tseva	-13438
urage	-13439
ustig	-13440
vaban	-13441
varse	-13442
zamos	-13443
álido	-13444
ástro	-13445
élène	-13446
ímova	-13447
ógico	-13448
▁Desp	-13449
▁Dice	-13450
▁Dime	-13451
▁Dire	-13452
▁Echó	-13453
▁Elle	-13454
▁Eres	-13455
▁Fabv	-13456
▁Grun	-13457
▁Herr	-13458
▁Jena	-13459
▁Nous	-13460
▁Obol	-13461
▁Petr	-13462
▁Puso	-13463
▁Raye	-13464
▁Roma	-13465
▁Suje	-13466
▁Sído	-13467
▁Toma	-13468
▁abro	-13469
▁acam	-13470
▁alas	-13471
▁anda	-13472
▁anun	-13473
▁arde	-13474
▁asta	-13475
▁atem	-13476
▁atus	-13477
▁auto	-13478
▁bota	-13479
▁caja	-13480
▁casó	-13481
▁caña	-13482
▁chas	-13483
▁chor	-13484
▁clas	-13485
▁clás	-13486
▁cucl	-13487
▁cuna	-13488
▁cuén	-13489
▁desf	-13490
▁dois	-13491
▁déje	-13492
▁elab	-13493
▁emis	-13494
▁enar	-13495
▁encu	-13496
▁exca	-13497
▁fang	-13498
▁fino	-13499
▁ganz	-13500
▁gens	-13501
▁hoyo	-13502
▁huer	-13503
▁huye	-13504
▁impo	-13505
▁inse	-13506
▁insó	-13507
▁inus	-13508
▁irme	-13509
▁irán	-13510
▁lazo	-13511
▁legi	-13512
▁llan	-13513
▁lomo	-13514
▁lujo	-13515
▁luto	-13516
▁mezc	-13517
▁occi	-13518
▁once	-13519
▁pant	-13520
▁pesa	-13521
▁posó	-13522
▁prev	-13523
▁prov	-13524
▁raíz	-13525
▁reha	-13526
▁reli	-13527
▁ries	-13528
▁robe	-13529
▁saga	-13530
▁sele	-13531
▁sord	-13532
▁tapó	-13533
▁ties	-13534
▁tiza	-13535
▁tome	-13536
▁trin	-13537
▁trág	-13538
▁unen	-13539
▁usar	-13540
▁uñas	-13541
▁vado	-13542
▁vana	-13543
▁vien	-13544
▁vivi	-13545
▁véri	-13546
Quería	-13547
Quiero	-13548
Rostov	-13549
Voyons	-13550
Váyase	-13551
aderas	-13552
antial	-13553
asible	-13554
bedrío	-13555
chadas	-13556
cheras	-13557
ciedad	-13558
ciller	-13559
cindir	-13560
ciosas	-13561
ctivas	-13562
ctorio	-13563
cuando	-13564
edland	-13565
erosos	-13566
ertura	-13567
gradas	-13568
grados	-13569
grafos	-13570
gramas	-13571
icioso	-13572
icismo	-13573
iestro	-13574
itesim	-13575
izados	-13576
lemand	-13577
oniato	-13578
orzhok	-13579
quiere	-13580
rugada	-13581
tibles	-13582
torios	-13583
trante	-13584
ultaba	-13585
urable	-13586
ussier	-13587
ármelo	-13588
ársela	-13589
éntich	-13590
érselo	-13591
éstate	-13592
ísimas	-13593
▁Ajros	-13594
▁Bélli	-13595
▁Fédor	-13596
▁Garde	-13597
▁Ignat	-13598
▁Igual	-13599
▁Jerus	-13600
▁Junot	-13601
▁Katia	-13602
▁Kazán	-13603
▁Mandó	-13604
▁Mitka	-13605
▁Orsha	-13606
▁Petró	-13607
▁Sokol	-13608
▁Svent	-13609
▁Sújar	-13610
▁Trató	-13611
▁Tugen	-13612
▁Voilà	-13613
▁Yauza	-13614
▁acabo	-13615
▁aclam	-13616
▁activ	-13617
▁actúa	-13618
▁alfil	-13619
▁ambul	-13620
▁andra	-13621
▁apart	-13622
▁après	-13623
▁arder	-13624
▁arroj	-13625
▁arrol	-13626
▁asado	-13627
▁asfix	-13628
▁asilo	-13629
▁ataba	-13630
▁ataca	-13631
▁atray	-13632
▁averg	-13633
▁brave	-13634
▁camas	-13635
▁canal	-13636
▁cedió	-13637
▁chico	-13638
▁cifra	-13639
▁comad	-13640
▁coque	-13641
▁culti	-13642
▁culto	-13643
▁darme	-13644
▁decor	-13645
▁delan	-13646
▁delat	-13647
▁derru	-13648
▁desah	-13649
▁despo	-13650
▁devor	-13651
▁divor	-13652
▁dolía	-13653
▁doute	-13654
▁droit	-13655
▁efica	-13656
▁empal	-13657
▁empar	-13658
▁enfun	-13659
▁enmar	-13660
▁ensal	-13661
▁entré	-13662
▁errón	-13663
▁esgri	-13664
▁españ	-13665
▁ester	-13666
▁estir	-13667
▁evitó	-13668
▁exhor	-13669
▁false	-13670
▁fumar	-13671
▁geome	-13672
▁grita	-13673
▁harto	-13674
▁hilas	-13675
▁hondo	-13676
▁hospe	-13677
▁hotel	-13678
▁ident	-13679
▁impru	-13680
▁juntó	-13681
▁laiss	-13682
▁lenta	-13683
▁linda	-13684
▁lápiz	-13685
▁marmi	-13686
▁metió	-13687
▁miran	-13688
▁monte	-13689
▁moría	-13690
▁murió	-13691
▁nacer	-13692
▁opina	-13693
▁parle	-13694
▁polca	-13695
▁posta	-13696
▁profe	-13697
▁pulso	-13698
▁pulul	-13699
▁punta	-13700
▁quise	-13701
▁rebel	-13702
▁recos	-13703
▁regal	-13704
▁reman	-13705
▁remat	-13706
▁renta	-13707
▁reñir	-13708
▁reúne	-13709
▁rodeó	-13710
▁sabla	-13711
▁sabrá	-13712
▁sacré	-13713
▁santu	-13714
▁sauvé	-13715
▁sayal	-13716
▁sentí	-13717
▁seule	-13718
▁sexto	-13719
▁simil	-13720
▁sonor	-13721
▁soñol	-13722
▁sueco	-13723
▁suger	-13724
▁tarea	-13725
▁tedio	-13726
▁tensa	-13727
▁tertu	-13728
▁tibia	-13729
▁tilos	-13730
▁tonta	-13731
▁toque	-13732
▁tribu	-13733
▁trozo	-13734
▁vagas	-13735
▁vanos	-13736
▁vejez	-13737
▁vería	-13738
▁vesti	-13739
▁veter	-13740
▁vicio	-13741
▁vidri	-13742
▁vivac	-13743
▁éstas	-13744
Bonjour	-13745
Comment	-13746
Esperad	-13747
Nuestra	-13748
Podemos	-13749
Quiénes	-13750
argaban	-13751
endvízh	-13752
falario	-13753
jándose	-13754
leyrand	-13755
mitínov	-13756
orizada	-13757
orizado	-13758
tilidad	-13759
ttendez	-13760
umovski	-13761
▁Berlín	-13762
▁Bitski	-13763
▁Contra	-13764
▁Dieron	-13765
▁Duport	-13766
▁Entorn	-13767
▁Espera	-13768
▁Estuvo	-13769
▁Inmedi	-13770
▁Lannes	-13771
▁Luises	-13772
▁Madame	-13773
▁Markov	-13774
▁Morand	-13775
▁Málvin	-13776
▁Naples	-13777
▁Ordenó	-13778
▁Pasaba	-13779
▁Porque	-13780
▁Quiere	-13781
▁Repnin	-13782
▁Respon	-13783
▁Saludó	-13784
▁Senado	-13785
▁Siento	-13786
▁Utitsa	-13787
▁Varios	-13788
▁abetos	-13789
▁abomin	-13790
▁aboton	-13791
▁acostó	-13792
▁activa	-13793
▁acumul	-13794
▁adoles	-13795
▁afluía	-13796
▁alazán	-13797
▁alberg	-13798
▁aparta	-13799
▁arraig	-13800
▁asimil	-13801
▁atados	-13802
▁atreve	-13803
▁august	-13804
▁avantr	-13805
▁ayudas	-13806
▁barril	-13807
▁bebida	-13808
▁benefi	-13809
▁besara	-13810
▁bocado	-13811
▁bombas	-13812
▁bonito	-13813
▁bribón	-13814
▁bronce	-13815
▁brusco	-13816
▁brutal	-13817
▁burlas	-13818
▁buscan	-13819
▁caería	-13820
▁carece	-13821
▁cargos	-13822
▁caídas	-13823
▁caídos	-13824
▁celoso	-13825
▁charca	-13826
▁chemin	-13827
▁coetán	-13828
▁colcha	-13829
▁colega	-13830
▁conmis	-13831
▁créame	-13832
▁cuchar	-13833
▁cumbre	-13834
▁cumpla	-13835
▁debili	-13836
▁demain	-13837
▁descor	-13838
▁desent	-13839
▁despar	-13840
▁dirías	-13841
▁disten	-13842
▁docena	-13843
▁dragón	-13844
▁dudaba	-13845
▁duques	-13846
▁décidé	-13847
▁eludir	-13848
▁embust	-13849
▁enseña	-13850
▁erguía	-13851
▁escasa	-13852
▁esmero	-13853
▁estaré	-13854
▁estiró	-13855
▁estupe	-13856
▁etapas	-13857
▁examen	-13858
▁exigir	-13859
▁exquis	-13860
▁faldas	-13861
▁favore	-13862
▁fieles	-13863
▁firmes	-13864
▁flacos	-13865
▁formul	-13866
▁fuesen	-13867
▁fustig	-13868
▁gastar	-13869
▁gatita	-13870
▁gozoso	-13871
▁guiado	-13872
▁gustar	-13873
▁habrás	-13874
▁hallan	-13875
▁huevos	-13876
▁impide	-13877
▁impuso	-13878
▁incans	-13879
▁inflam	-13880
▁inspir	-13881
▁iremos	-13882
▁juegos	-13883
▁juergu	-13884
▁jurídi	-13885
▁juzgan	-13886
▁lampar	-13887
▁librar	-13888
▁ligado	-13889
▁llenar	-13890
▁lleven	-13891
▁lujoso	-13892
▁madres	-13893
▁maison	-13894
▁mundos	-13895
▁mágica	-13896
▁mínimo	-13897
▁nacion	-13898
▁nation	-13899
▁notifi	-13900
▁novela	-13901
▁obsequ	-13902
▁ocurra	-13903
▁oleada	-13904
▁olvida	-13905
▁orador	-13906
▁ortodo	-13907
▁palaci	-13908
▁palcos	-13909
▁parler	-13910
▁partía	-13911
▁pelota	-13912
▁pelusa	-13913
▁peores	-13914
▁piense	-13915
▁ponche	-13916
▁poseen	-13917
▁pretil	-13918
▁prever	-13919
▁promin	-13920
▁propos	-13921
▁puedas	-13922
▁pésimo	-13923
▁ración	-13924
▁refugi	-13925
▁regist	-13926
▁repren	-13927
▁reside	-13928
▁resuci	-13929
▁retiro	-13930
▁rezaba	-13931
▁reúnen	-13932
▁robles	-13933
▁rugoso	-13934
▁ruinas	-13935
▁sabios	-13936
▁sainte	-13937
▁salchi	-13938
▁saldrá	-13939
▁salvas	-13940
▁savoir	-13941
▁sirvió	-13942
▁soldat	-13943
▁soñado	-13944
▁subray	-13945
▁sufren	-13946
▁sumerg	-13947
▁supone	-13948
▁tejado	-13949
▁terció	-13950
▁traiga	-13951
▁trampa	-13952
▁trapos	-13953
▁traslu	-13954
▁traves	-13955
▁traída	-13956
▁tribut	-13957
▁turbar	-13958
▁vacíos	-13959
▁visitó	-13960
▁vistos	-13961
▁váyase	-13962
▁ánimos	-13963
Canallas	-13964
Charmant	-13965
▁Bohemia	-13966
▁Continu	-13967
▁Cuantos	-13968
▁Fabvier	-13969
▁Leppich	-13970
▁Natalie	-13971
▁Navidad	-13972
▁Nuestra	-13973
▁Poniato	-13974
▁Resulta	-13975
▁Supongo	-13976
▁Torzhok	-13977
▁Trataba	-13978
▁Valúiev	-13979
▁abanico	-13980
▁abrirla	-13981
▁abrirán	-13982
▁abrupta	-13983
▁absorto	-13984
▁absurda	-13985
▁acabara	-13986
▁acierto	-13987
▁admitía	-13988
▁adoptar	-13989
▁amorosa	-13990
▁anuncia	-13991
▁armario	-13992
▁arreglo	-13993
▁arreman	-13994
▁arrojar	-13995
▁asistía	-13996
▁ataques	-13997
▁atraían	-13998
▁aumentó	-13999
▁avitual	-14000
▁besarla	-14001
▁bonitas	-14002
▁bulevar	-14003
▁burlaba	-14004
▁cautela	-14005
▁central	-14006
▁cerrada	-14007
▁chispas	-14008
▁choques	-14009
▁cocinas	-14010
▁contara	-14011
▁contuvo	-14012
▁convale	-14013
▁courtis	-14014
▁cumplió	-14015
▁cálculo	-14016
▁declaró	-14017
▁dejarse	-14018
▁dejarán	-14019
▁delirio	-14020
▁demente	-14021
▁desarru	-14022
▁desbord	-14023
▁desempe	-14024
▁deshizo	-14025
▁desplom	-14026
▁diablos	-14027
▁dictaba	-14028
▁disparó	-14029
▁echados	-14030
▁echarse	-14031
▁elevaba	-14032
▁empaque	-14033
▁enrique	-14034
▁enseñar	-14035
▁enviada	-14036
▁equival	-14037
▁escaram	-14038
▁escasos	-14039
▁escenas	-14040
▁esclavo	-14041
▁escuche	-14042
▁estrate	-14043
▁estuche	-14044
▁eternas	-14045
▁evacuar	-14046
▁excitar	-14047
▁expreso	-14048
▁favores	-14049
▁festivo	-14050
▁fingida	-14051
▁formada	-14052
▁fruncía	-14053
▁fuentes	-14054
▁funesto	-14055
▁furriel	-14056
▁gallina	-14057
▁ganarse	-14058
▁hacerla	-14059
▁heladas	-14060
▁helados	-14061
▁hormigu	-14062
▁humilde	-14063
▁huracán	-14064
▁impidió	-14065
▁incomod	-14066
▁incorre	-14067
▁inexper	-14068
▁influía	-14069
▁interno	-14070
▁intimid	-14071
▁invadía	-14072
▁laissez	-14073
▁latente	-14074
▁lección	-14075
▁liberar	-14076
▁ligados	-14077
▁lisonje	-14078
▁llevará	-14079
▁lucidez	-14080
▁líquido	-14081
▁mandaré	-14082
▁manzana	-14083
▁maridos	-14084
▁matanza	-14085
▁mataran	-14086
▁matices	-14087
▁mauvais	-14088
▁melodía	-14089
▁milicia	-14090
▁miseria	-14091
▁mojados	-14092
▁montada	-14093
▁moriría	-14094
▁muchach	-14095
▁médecin	-14096
▁nodriza	-14097
▁obedece	-14098
▁palidez	-14099
▁paquete	-14100
▁parpade	-14101
▁partían	-14102
▁pausada	-14103
▁perecer	-14104
▁perpetu	-14105
▁pescado	-14106
▁pierdes	-14107
▁pintado	-14108
▁placent	-14109
▁poblado	-14110
▁pobreza	-14111
▁podamos	-14112
▁preveía	-14113
▁prisión	-14114
▁privada	-14115
▁procura	-14116
▁quitado	-14117
▁química	-14118
▁reciben	-14119
▁refirió	-14120
▁refunfu	-14121
▁repercu	-14122
▁respira	-14123
▁revuelo	-14124
▁sagrada	-14125
▁saltaba	-14126
▁sanguin	-14127
▁seguras	-14128
▁setenta	-14129
▁severos	-14130
▁simétri	-14131
▁sollozó	-14132
▁soltero	-14133
▁sufrían	-14134
▁sujetar	-14135
▁superst	-14136
▁talento	-14137
▁temblar	-14138
▁tenerlo	-14139
▁tintine	-14140
▁tiraban	-14141
▁tratará	-14142
▁turbios	-14143
▁títulos	-14144
▁unánime	-14145
▁urgente	-14146
▁vendría	-14147
▁viernes	-14148
▁volverá	-14149
▁vueltos	-14150
cialmente	-14151
inaciones	-14152
zosamente	-14153
▁Bélliard	-14154
▁Caminaba	-14155
▁Comisión	-14156
▁Conforme	-14157
▁Consider	-14158
▁Constitu	-14159
▁Preguntó	-14160
▁Rayevski	-14161
▁Salieron	-14162
▁Voltaire	-14163
▁acostado	-14164
▁adornado	-14165
▁adquirir	-14166
▁afectada	-14167
▁ahogaban	-14168
▁aisladas	-14169
▁alargada	-14170
▁albedrío	-14171
▁alterado	-14172
▁ambición	-14173
▁analizar	-14174
▁anteojos	-14175
▁antipáti	-14176
▁aparecen	-14177
▁apostado	-14178
▁apoyaron	-14179
▁ayudarla	-14180
▁brotaron	-14181
▁buscarla	-14182
▁callaban	-14183
▁calzones	-14184
▁camarada	-14185
▁camarero	-14186
▁cantando	-14187
▁carecían	-14188
▁carentes	-14189
▁carreras	-14190
▁catástro	-14191
▁cerraban	-14192
▁chillona	-14193
▁cicatriz	-14194
▁clavados	-14195
▁coincide	-14196
▁colocada	-14197
▁comiendo	-14198
▁complejo	-14199
▁confusas	-14200
▁contarle	-14201
▁convence	-14202
▁conyugal	-14203
▁cortinas	-14204
▁cruzaban	-14205
▁dedicado	-14206
▁defendía	-14207
▁definida	-14208
▁dejarlos	-14209
▁desayuno	-14210
▁describe	-14211
▁despedía	-14212
▁detenían	-14213
▁distante	-14214
▁dolorida	-14215
▁ejemplos	-14216
▁emisario	-14217
▁empujado	-14218
▁encogido	-14219
▁encoleri	-14220
▁entregue	-14221
▁enviados	-14222
▁esclavos	-14223
▁escogida	-14224
▁escritos	-14225
▁estallar	-14226
▁estratég	-14227
▁estribos	-14228
▁excitada	-14229
▁exhausto	-14230
▁femenino	-14231
▁ficticia	-14232
▁formaron	-14233
▁guerrero	-14234
▁habíamos	-14235
▁hormigas	-14236
▁humeante	-14237
▁hundirse	-14238
▁impertin	-14239
▁infantes	-14240
▁influido	-14241
▁ingresar	-14242
▁insomnio	-14243
▁intentan	-14244
▁intentar	-14245
▁intercep	-14246
▁invitaba	-14247
▁lastimos	-14248
▁llamarlo	-14249
▁luminosa	-14250
▁malheure	-14251
▁maniobra	-14252
▁matanzas	-14253
▁material	-14254
▁mesurada	-14255
▁mezquino	-14256
▁monstruo	-14257
▁montones	-14258
▁nacional	-14259
▁naciones	-14260
▁noviazgo	-14261
▁numerosa	-14262
▁oblicuos	-14263
▁ocultado	-14264
▁ocupando	-14265
▁officier	-14266
▁olvidará	-14267
▁originan	-14268
▁paciente	-14269
▁palomita	-14270
▁panorama	-14271
▁pantanos	-14272
▁pasarían	-14273
▁pañuelos	-14274
▁peldaños	-14275
▁pensarlo	-14276
▁percibir	-14277
▁perpleja	-14278
▁persignó	-14279
▁pestañas	-14280
▁pistolas	-14281
▁plegable	-14282
▁podremos	-14283
▁portador	-14284
▁prefirió	-14285
▁preocupa	-14286
▁privileg	-14287
▁procuran	-14288
▁programa	-14289
▁provinci	-14290
▁próximas	-14291
▁puntiagu	-14292
▁racional	-14293
▁recibían	-14294
▁reclutas	-14295
▁refinada	-14296
▁reflejos	-14297
▁repetida	-14298
▁resistía	-14299
▁respetos	-14300
▁retiraba	-14301
▁retratos	-14302
▁rodeados	-14303
▁salvajes	-14304
▁satisfac	-14305
▁seguirlo	-14306
▁sentadas	-14307
▁sentidos	-14308
▁servidor	-14309
▁subalter	-14310
▁subieron	-14311
▁sucesión	-14312
▁suplicar	-14313
▁suponían	-14314
▁tardaron	-14315
▁tendrían	-14316
▁teología	-14317
▁testigos	-14318
▁teóricos	-14319
▁tirantes	-14320
▁traicion	-14321
▁triunfal	-14322
▁utilizan	-14323
▁utilizar	-14324
▁valiosos	-14325
▁vencidos	-14326
▁vendados	-14327
▁vigilaba	-14328
▁visitado	-14329
▁vociferó	-14330
▁Alexandre	-14331
▁Apraksine	-14332
▁Broussier	-14333
▁Comenzaba	-14334
▁Friedland	-14335
▁Ivánushka	-14336
▁Jerusalén	-14337
▁Lauriston	-14338
▁Narishkin	-14339
▁Obolenski	-14340
▁Petróvich	-14341
▁Sventsian	-14342
▁Teréntich	-14343
▁Tugenbund	-14344
▁abundante	-14345
▁acercaran	-14346
▁acogieron	-14347
▁admitimos	-14348
▁adoración	-14349
▁adquirido	-14350
▁adquirían	-14351
▁alargando	-14352
▁alegraban	-14353
▁aplastado	-14354
▁arrastran	-14355
▁arreglado	-14356
▁arrojaron	-14357
▁asombrosa	-14358
▁atreviera	-14359
▁atribuyen	-14360
▁bendición	-14361
▁calculado	-14362
▁caminaban	-14363
▁canciller	-14364
▁cantantes	-14365
▁capitaine	-14366
▁capitales	-14367
▁carretera	-14368
▁celebraba	-14369
▁colocadas	-14370
▁comparada	-14371
▁compartir	-14372
▁concentra	-14373
▁confesión	-14374
▁consultar	-14375
▁contestan	-14376
▁continuos	-14377
▁contornos	-14378
▁convenció	-14379
▁convertía	-14380
▁convierte	-14381
▁creciendo	-14382
▁cristiana	-14383
▁cubriendo	-14384
▁cuclillas	-14385
▁cumplidor	-14386
▁dejándose	-14387
▁deliciosa	-14388
▁descompon	-14389
▁desconcer	-14390
▁desembara	-14391
▁destinada	-14392
▁destruían	-14393
▁discordia	-14394
▁disfraces	-14395
▁disparado	-14396
▁empujando	-14397
▁encargaba	-14398
▁encorvado	-14399
▁enfermiza	-14400
▁engordado	-14401
▁entendían	-14402
▁entienden	-14403
▁entrecejo	-14404
▁escalones	-14405
▁escaparse	-14406
▁escocesas	-14407
▁escribiré	-14408
▁estancias	-14409
▁estimaban	-14410
▁estimular	-14411
▁estúpidas	-14412
▁exigiendo	-14413
▁extendían	-14414
[...]
